{
  "version": "1.0",
  "truncation": null,
  "padding": null,
  "added_tokens": [
    {
      "id": 0,
      "content": "[UNK]",
      "single_word": false,
      "lstrip": false,
      "rstrip": false,
      "normalized": false,
      "special": true
    },
    {
      "id": 1,
      "content": "[CLS]",
      "single_word": false,
      "lstrip": false,
      "rstrip": false,
      "normalized": false,
      "special": true
    },
    {
      "id": 2,
      "content": "[SEP]",
      "single_word": false,
      "lstrip": false,
      "rstrip": false,
      "normalized": false,
      "special": true
    },
    {
      "id": 3,
      "content": "[PAD]",
      "single_word": false,
      "lstrip": false,
      "rstrip": false,
      "normalized": false,
      "special": true
    },
    {
      "id": 4,
      "content": "[MASK]",
      "single_word": false,
      "lstrip": false,
      "rstrip": false,
      "normalized": false,
      "special": true
    }
  ],
  "normalizer": null,
  "pre_tokenizer": {
    "type": "Whitespace"
  },
  "post_processor": null,
  "decoder": null,
  "model": {
    "type": "BPE",
    "dropout": null,
    "unk_token": "[UNK]",
    "continuing_subword_prefix": null,
    "end_of_word_suffix": null,
    "fuse_unk": false,
    "byte_fallback": false,
    "ignore_merges": false,
    "vocab": {
      "[UNK]": 0,
      "[CLS]": 1,
      "[SEP]": 2,
      "[PAD]": 3,
      "[MASK]": 4,
      "!": 5,
      "\"": 6,
      "#": 7,
      "$": 8,
      "%": 9,
      "&": 10,
      "'": 11,
      "(": 12,
      ")": 13,
      "*": 14,
      "+": 15,
      ",": 16,
      "-": 17,
      ".": 18,
      "/": 19,
      "0": 20,
      "1": 21,
      "2": 22,
      "3": 23,
      "4": 24,
      "5": 25,
      "6": 26,
      "7": 27,
      "8": 28,
      "9": 29,
      ":": 30,
      ";": 31,
      "<": 32,
      "=": 33,
      ">": 34,
      "?": 35,
      "@": 36,
      "A": 37,
      "B": 38,
      "C": 39,
      "D": 40,
      "E": 41,
      "F": 42,
      "G": 43,
      "H": 44,
      "I": 45,
      "J": 46,
      "K": 47,
      "L": 48,
      "M": 49,
      "N": 50,
      "O": 51,
      "P": 52,
      "Q": 53,
      "R": 54,
      "S": 55,
      "T": 56,
      "U": 57,
      "V": 58,
      "W": 59,
      "X": 60,
      "Y": 61,
      "Z": 62,
      "[": 63,
      "\\": 64,
      "]": 65,
      "^": 66,
      "_": 67,
      "`": 68,
      "a": 69,
      "b": 70,
      "c": 71,
      "d": 72,
      "e": 73,
      "f": 74,
      "g": 75,
      "h": 76,
      "i": 77,
      "j": 78,
      "k": 79,
      "l": 80,
      "m": 81,
      "n": 82,
      "o": 83,
      "p": 84,
      "q": 85,
      "r": 86,
      "s": 87,
      "t": 88,
      "u": 89,
      "v": 90,
      "w": 91,
      "x": 92,
      "y": 93,
      "z": 94,
      "{": 95,
      "|": 96,
      "}": 97,
      "~": 98,
      "§": 99,
      "¨": 100,
      "«": 101,
      "­": 102,
      "°": 103,
      "²": 104,
      "³": 105,
      "´": 106,
      "·": 107,
      "»": 108,
      "À": 109,
      "Á": 110,
      "É": 111,
      "Ñ": 112,
      "Ó": 113,
      "Ö": 114,
      "×": 115,
      "Ü": 116,
      "ß": 117,
      "à": 118,
      "á": 119,
      "â": 120,
      "ä": 121,
      "å": 122,
      "ç": 123,
      "è": 124,
      "é": 125,
      "ê": 126,
      "ë": 127,
      "í": 128,
      "ñ": 129,
      "ò": 130,
      "ó": 131,
      "ô": 132,
      "ö": 133,
      "ú": 134,
      "û": 135,
      "ü": 136,
      "ý": 137,
      "ā": 138,
      "Ą": 139,
      "ą": 140,
      "Ć": 141,
      "ć": 142,
      "Č": 143,
      "č": 144,
      "ē": 145,
      "Ę": 146,
      "ę": 147,
      "ě": 148,
      "ğ": 149,
      "ī": 150,
      "Ĳ": 151,
      "Ł": 152,
      "ł": 153,
      "Ń": 154,
      "ń": 155,
      "Ō": 156,
      "ō": 157,
      "ő": 158,
      "ŕ": 159,
      "ř": 160,
      "Ś": 161,
      "ś": 162,
      "š": 163,
      "Ţ": 164,
      "ţ": 165,
      "ū": 166,
      "Ź": 167,
      "ź": 168,
      "Ż": 169,
      "ż": 170,
      "˝": 171,
      "́": 172,
      "ή": 173,
      "α": 174,
      "β": 175,
      "γ": 176,
      "δ": 177,
      "η": 178,
      "θ": 179,
      "ι": 180,
      "κ": 181,
      "μ": 182,
      "ν": 183,
      "ο": 184,
      "ρ": 185,
      "ς": 186,
      "σ": 187,
      "τ": 188,
      "υ": 189,
      "φ": 190,
      "χ": 191,
      "ό": 192,
      "ώ": 193,
      "Ϛ": 194,
      "Ϝ": 195,
      "Ϟ": 196,
      "Ϡ": 197,
      "А": 198,
      "В": 199,
      "К": 200,
      "Л": 201,
      "М": 202,
      "Н": 203,
      "П": 204,
      "С": 205,
      "а": 206,
      "б": 207,
      "в": 208,
      "г": 209,
      "д": 210,
      "е": 211,
      "ж": 212,
      "з": 213,
      "и": 214,
      "й": 215,
      "к": 216,
      "л": 217,
      "м": 218,
      "н": 219,
      "о": 220,
      "п": 221,
      "р": 222,
      "с": 223,
      "т": 224,
      "у": 225,
      "ф": 226,
      "х": 227,
      "ц": 228,
      "ч": 229,
      "ш": 230,
      "щ": 231,
      "ы": 232,
      "ь": 233,
      "э": 234,
      "я": 235,
      "أ": 236,
      "ا": 237,
      "ب": 238,
      "ج": 239,
      "ر": 240,
      "س": 241,
      "ض": 242,
      "ل": 243,
      "م": 244,
      "و": 245,
      "ي": 246,
      "ḍ": 247,
      "Ḥ": 248,
      "ḥ": 249,
      "ṣ": 250,
      "ἀ": 251,
      "ἄ": 252,
      "–": 253,
      "—": 254,
      "‘": 255,
      "’": 256,
      "“": 257,
      "”": 258,
      "„": 259,
      "•": 260,
      "…": 261,
      "−": 262,
      "⟨": 263,
      "⟩": 264,
      "⫶": 265,
      "ie": 266,
      "rz": 267,
      "na": 268,
      "nie": 269,
      "cz": 270,
      "ch": 271,
      "sz": 272,
      "po": 273,
      "st": 274,
      "ni": 275,
      "ał": 276,
      "dz": 277,
      "ię": 278,
      "ra": 279,
      "ow": 280,
      "ro": 281,
      "rze": 282,
      "li": 283,
      "je": 284,
      "go": 285,
      "za": 286,
      "się": 287,
      "ko": 288,
      "ci": 289,
      "le": 290,
      "do": 291,
      "mi": 292,
      "ka": 293,
      "wi": 294,
      "ta": 295,
      "by": 296,
      "ki": 297,
      "ny": 298,
      "rzy": 299,
      "te": 300,
      "ła": 301,
      "że": 302,
      "wa": 303,
      "ne": 304,
      "ja": 305,
      "pa": 306,
      "wy": 307,
      "ło": 308,
      "ty": 309,
      "to": 310,
      "wie": 311,
      "ów": 312,
      "wo": 313,
      "da": 314,
      "dzi": 315,
      "no": 316,
      "ry": 317,
      "la": 318,
      "czy": 319,
      "dzie": 320,
      "prze": 321,
      "re": 322,
      "ma": 323,
      "kie": 324,
      "od": 325,
      "cie": 326,
      "dy": 327,
      "ją": 328,
      "ce": 329,
      "mo": 330,
      "ku": 331,
      "sta": 332,
      "szy": 333,
      "cze": 334,
      "mie": 335,
      "em": 336,
      "kt": 337,
      "si": 338,
      "owa": 339,
      "ści": 340,
      "cy": 341,
      "nia": 342,
      "ob": 343,
      "przy": 344,
      "mu": 345,
      "ru": 346,
      "my": 347,
      "któ": 348,
      "ną": 349,
      "ły": 350,
      "sze": 351,
      "ba": 352,
      "bo": 353,
      "sa": 354,
      "ała": 355,
      "tu": 356,
      "pie": 357,
      "we": 358,
      "cza": 359,
      "co": 360,
      "lu": 361,
      "pra": 362,
      "bi": 363,
      "ży": 364,
      "ga": 365,
      "pi": 366,
      "de": 367,
      "raz": 368,
      "roz": 369,
      "łu": 370,
      "ró": 371,
      "ski": 372,
      "jak": 373,
      "ść": 374,
      "ze": 375,
      "ca": 376,
      "wia": 377,
      "ju": 378,
      "spo": 379,
      "nych": 380,
      "jest": 381,
      "cho": 382,
      "wszy": 383,
      "bie": 384,
      "tak": 385,
      "zna": 386,
      "sza": 387,
      "pod": 388,
      "pe": 389,
      "ale": 390,
      "gi": 391,
      "ały": 392,
      "rę": 393,
      "du": 394,
      "owie": 395,
      "owi": 396,
      "skie": 397,
      "sk": 398,
      "wię": 399,
      "pan": 400,
      "sie": 401,
      "Po": 402,
      "gł": 403,
      "mó": 404,
      "owy": 405,
      "sto": 406,
      "niej": 407,
      "zy": 408,
      "in": 409,
      "Nie": 410,
      "me": 411,
      "pro": 412,
      "ało": 413,
      "sy": 414,
      "be": 415,
      "nym": 416,
      "lo": 417,
      "cha": 418,
      "pu": 419,
      "nę": 420,
      "owe": 421,
      "ję": 422,
      "ar": 423,
      "który": 424,
      "nej": 425,
      "su": 426,
      "Na": 427,
      "se": 428,
      "ska": 429,
      "jed": 430,
      "szcze": 431,
      "czę": 432,
      "an": 433,
      "gdy": 434,
      "już": 435,
      "nego": 436,
      "or": 437,
      "bę": 438,
      "Za": 439,
      "powie": 440,
      "ji": 441,
      "on": 442,
      "jąc": 443,
      "tym": 444,
      "kł": 445,
      "fi": 446,
      "bu": 447,
      "sob": 448,
      "mnie": 449,
      "ich": 450,
      "lko": 451,
      "niu": 452,
      "gło": 453,
      "jej": 454,
      "jego": 455,
      "py": 456,
      "ża": 457,
      "Ja": 458,
      "które": 459,
      "tego": 460,
      "dla": 461,
      "ków": 462,
      "czą": 463,
      "wał": 464,
      "naj": 465,
      "sią": 466,
      "przez": 467,
      "przed": 468,
      "dział": 469,
      "pó": 470,
      "ąd": 471,
      "mówi": 472,
      "był": 473,
      "myś": 474,
      "..": 475,
      "nął": 476,
      "Je": 477,
      "tylko": 478,
      "rzekł": 479,
      "wszyst": 480,
      "ście": 481,
      "nic": 482,
      "dob": 483,
      "sty": 484,
      "mię": 485,
      "rza": 486,
      "rą": 487,
      "trzy": 488,
      "cji": 489,
      "tem": 490,
      "było": 491,
      "og": 492,
      "rów": 493,
      "wz": 494,
      "wła": 495,
      "praw": 496,
      "czo": 497,
      "czas": 498,
      "mia": 499,
      "al": 500,
      "kę": 501,
      "zo": 502,
      "dł": 503,
      "słu": 504,
      "cu": 505,
      "sł": 506,
      "jeszcze": 507,
      "trze": 508,
      "cia": 509,
      "nt": 510,
      "nu": 511,
      "Ch": 512,
      "lę": 513,
      "tej": 514,
      "sko": 515,
      "tam": 516,
      "bra": 517,
      "bez": 518,
      "sła": 519,
      "ok": 520,
      "może": 521,
      "żo": 522,
      "kiem": 523,
      "zu": 524,
      "są": 525,
      "nad": 526,
      "zie": 527,
      "dze": 528,
      "Wo": 529,
      "tę": 530,
      "cią": 531,
      "ności": 532,
      "Ta": 533,
      "bli": 534,
      "ką": 535,
      "kła": 536,
      "pier": 537,
      "ąc": 538,
      "im": 539,
      "wó": 540,
      "dzo": 541,
      "bar": 542,
      "będzie": 543,
      "Ale": 544,
      "tra": 545,
      "ten": 546,
      "tych": 547,
      "To": 548,
      "nim": 549,
      "stra": 550,
      "niem": 551,
      "cię": 552,
      "nio": 553,
      "kich": 554,
      "dę": 555,
      "skiego": 556,
      "sobie": 557,
      "rowa": 558,
      "chwi": 559,
      "ri": 560,
      "dzy": 561,
      "twa": 562,
      "śli": 563,
      "stę": 564,
      "wsze": 565,
      "ste": 566,
      "gie": 567,
      "ował": 568,
      "pła": 569,
      "sia": 570,
      "zd": 571,
      "czu": 572,
      "kim": 573,
      "gu": 574,
      "cał": 575,
      "ona": 576,
      "Ma": 577,
      "też": 578,
      "chy": 579,
      "cja": 580,
      "zi": 581,
      "miał": 582,
      "wiel": 583,
      "Bo": 584,
      "śmie": 585,
      "swo": 586,
      "!…": 587,
      "so": 588,
      "jako": 589,
      "wać": 590,
      "stro": 591,
      "two": 592,
      "świa": 593,
      "rzu": 594,
      "jedna": 595,
      "jący": 596,
      "wią": 597,
      "nią": 598,
      "łe": 599,
      "wet": 600,
      "gra": 601,
      "Pa": 602,
      "tał": 603,
      "kró": 604,
      "owo": 605,
      "woj": 606,
      "Wi": 607,
      "śnie": 608,
      "dni": 609,
      "par": 610,
      "wró": 611,
      "fa": 612,
      "chodzi": 613,
      "dą": 614,
      "tro": 615,
      "kto": 616,
      "więc": 617,
      "dro": 618,
      "kra": 619,
      "cił": 620,
      "ować": 621,
      "peł": 622,
      "zaś": 623,
      "dru": 624,
      "ność": 625,
      "nik": 626,
      "gó": 627,
      "rzą": 628,
      "kon": 629,
      "być": 630,
      "nię": 631,
      "nawet": 632,
      "ńst": 633,
      "mog": 634,
      "kiego": 635,
      "stu": 636,
      "dłu": 637,
      "pew": 638,
      "pię": 639,
      "owych": 640,
      "myśl": 641,
      "cznie": 642,
      "gro": 643,
      "żę": 644,
      "den": 645,
      "Sta": 646,
      "lski": 647,
      "Le": 648,
      "dać": 649,
      "Ka": 650,
      "ksią": 651,
      "sły": 652,
      "jednak": 653,
      "wą": 654,
      "dza": 655,
      "owej": 656,
      "pad": 657,
      "?…": 658,
      "mę": 659,
      "sam": 660,
      "oczy": 661,
      "śmy": 662,
      "sku": 663,
      "resz": 664,
      "daw": 665,
      "Ko": 666,
      "krzy": 667,
      "Do": 668,
      "cej": 669,
      "lub": 670,
      "tą": 671,
      "er": 672,
      "ej": 673,
      "Prze": 674,
      "Ra": 675,
      "gdzie": 676,
      "lą": 677,
      "prowa": 678,
      "szą": 679,
      "była": 680,
      "łem": 681,
      "kil": 682,
      "robi": 683,
      "pow": 684,
      "skiej": 685,
      "strze": 686,
      "bym": 687,
      "ser": 688,
      "war": 689,
      "stał": 690,
      "nów": 691,
      "nich": 692,
      "moż": 693,
      "kaz": 694,
      "lej": 695,
      "zło": 696,
      "dał": 697,
      "Ty": 698,
      "dź": 699,
      "ha": 700,
      "mar": 701,
      "teraz": 702,
      "owski": 703,
      "Co": 704,
      "ców": 705,
      "Ro": 706,
      "Wy": 707,
      "rzę": 708,
      "szczę": 709,
      "ową": 710,
      "Mi": 711,
      "łowie": 712,
      "koń": 713,
      "począ": 714,
      "chci": 715,
      "Te": 716,
      "chu": 717,
      "towa": 718,
      "pół": 719,
      "miesz": 720,
      "Mo": 721,
      "niego": 722,
      "miej": 723,
      "di": 724,
      "Sz": 725,
      "gę": 726,
      "szę": 727,
      "świe": 728,
      "każ": 729,
      "pre": 730,
      "czym": 731,
      "szu": 732,
      "men": 733,
      "tru": 734,
      "wol": 735,
      "szedł": 736,
      "nika": 737,
      "odpowie": 738,
      "bro": 739,
      "dzą": 740,
      "róż": 741,
      "bardzo": 742,
      "kry": 743,
      "sło": 744,
      "kiej": 745,
      "pani": 746,
      "pana": 747,
      "ciąg": 748,
      "ran": 749,
      "żeby": 750,
      "nas": 751,
      "między": 752,
      "łą": 753,
      "Ju": 754,
      "mło": 755,
      "kro": 756,
      "czył": 757,
      "aby": 758,
      "stęp": 759,
      "czego": 760,
      "więk": 761,
      "nem": 762,
      "tów": 763,
      "księ": 764,
      "scy": 765,
      "pły": 766,
      "oj": 767,
      "działa": 768,
      "ałem": 769,
      "chwili": 770,
      "Czy": 771,
      "stan": 772,
      "szko": 773,
      "ół": 774,
      "ński": 775,
      "tnie": 776,
      "miejs": 777,
      "albo": 778,
      "waż": 779,
      "Pan": 780,
      "powia": 781,
      "zwy": 782,
      "którzy": 783,
      "cą": 784,
      "for": 785,
      "Wie": 786,
      "ani": 787,
      "dził": 788,
      "ws": 789,
      "których": 790,
      "By": 791,
      "zosta": 792,
      "rem": 793,
      "tr": 794,
      "ludzi": 795,
      "um": 796,
      "wier": 797,
      "książę": 798,
      "fe": 799,
      "kiedy": 800,
      "człowie": 801,
      "tka": 802,
      "ter": 803,
      "choć": 804,
      "nymi": 805,
      "jące": 806,
      "stą": 807,
      "spra": 808,
      "owego": 809,
      "musi": 810,
      "mówił": 811,
      "ścia": 812,
      "Przy": 813,
      "mniej": 814,
      "Sa": 815,
      "wszystko": 816,
      "rod": 817,
      "głos": 818,
      "ge": 819,
      "kre": 820,
      "...": 821,
      "przeci": 822,
      "óg": 823,
      "trz": 824,
      "żą": 825,
      "oba": 826,
      "chło": 827,
      "ód": 828,
      "jakby": 829,
      "usta": 830,
      "zda": 831,
      "lecz": 832,
      "szych": 833,
      "panie": 834,
      "mógł": 835,
      "roku": 836,
      "Tak": 837,
      "19": 838,
      "Ba": 839,
      "czne": 840,
      "Li": 841,
      "chę": 842,
      "Woku": 843,
      "wę": 844,
      "poli": 845,
      "kom": 846,
      "Tu": 847,
      "gar": 848,
      "mał": 849,
      "dnie": 850,
      "tk": 851,
      "ród": 852,
      "chod": 853,
      "et": 854,
      "nił": 855,
      "wił": 856,
      "now": 857,
      "podob": 858,
      "óż": 859,
      "dwa": 860,
      "niec": 861,
      "dzia": 862,
      "aż": 863,
      "wali": 864,
      "ryce": 865,
      "Jak": 866,
      "kar": 867,
      "która": 868,
      "ścią": 869,
      "stwo": 870,
      "nam": 871,
      "czasem": 872,
      "wej": 873,
      "Lecz": 874,
      "pytał": 875,
      "nąć": 876,
      "nić": 877,
      "kach": 878,
      "osta": 879,
      "miast": 880,
      "owę": 881,
      "ciu": 882,
      "niż": 883,
      "wio": 884,
      "cję": 885,
      "ój": 886,
      "Zagło": 887,
      "także": 888,
      "dziej": 889,
      "rozu": 890,
      "wu": 891,
      "więcej": 892,
      "zaraz": 893,
      "śmier": 894,
      "uro": 895,
      "chał": 896,
      "poczę": 897,
      "lat": 898,
      "zawo": 899,
      "uczy": 900,
      "pę": 901,
      "tek": 902,
      "przyja": 903,
      "gnie": 904,
      "żył": 905,
      "drze": 906,
      "znaj": 907,
      "cę": 908,
      "dzieć": 909,
      "szej": 910,
      "samo": 911,
      "nicy": 912,
      "siebie": 913,
      "żeli": 914,
      "przeciw": 915,
      "br": 916,
      "chce": 917,
      "można": 918,
      "łnie": 919,
      "An": 920,
      "szo": 921,
      "owym": 922,
      "dnia": 923,
      "poko": 924,
      "Gdy": 925,
      "kilka": 926,
      "były": 927,
      "moc": 928,
      "ór": 929,
      "nęła": 930,
      "sił": 931,
      "dzić": 932,
      "zmie": 933,
      "tar": 934,
      "gru": 935,
      "coś": 936,
      "szla": 937,
      "ciem": 938,
      "Ni": 939,
      "którym": 940,
      "kami": 941,
      "czyć": 942,
      "liśmy": 943,
      "Od": 944,
      "mów": 945,
      "jaki": 946,
      "począł": 947,
      "hu": 948,
      "włas": 949,
      "owiem": 950,
      "nek": 951,
      "ników": 952,
      "nale": 953,
      "której": 954,
      "potem": 955,
      "nami": 956,
      "jem": 957,
      "eś": 958,
      "rzał": 959,
      "mil": 960,
      "gą": 961,
      "raj": 962,
      "00": 963,
      "ób": 964,
      "poz": 965,
      "cznych": 966,
      "trzyma": 967,
      "szcza": 968,
      "cały": 969,
      "oko": 970,
      "dar": 971,
      "wra": 972,
      "dwie": 973,
      "wała": 974,
      "jeden": 975,
      "uwa": 976,
      "star": 977,
      "czej": 978,
      "pyta": 979,
      "gle": 980,
      "sób": 981,
      "miło": 982,
      "ską": 983,
      "chać": 984,
      "Kmi": 985,
      "krze": 986,
      "oraz": 987,
      "łody": 988,
      "jedno": 989,
      "reszcie": 990,
      "Kmici": 991,
      "żołnie": 992,
      "cki": 993,
      "godzi": 994,
      "tedy": 995,
      "domu": 996,
      "dow": 997,
      "Rze": 998,
      "skich": 999,
      "wem": 1000,
      "szym": 1001,
      "stwa": 1002,
      "woje": 1003,
      "Wokulski": 1004,
      "lnie": 1005,
      "tki": 1006,
      "Pe": 1007,
      "bowiem": 1008,
      "dzień": 1009,
      "świę": 1010,
      "jących": 1011,
      "cyj": 1012,
      "mieszka": 1013,
      "Zagłoba": 1014,
      "kla": 1015,
      "cić": 1016,
      "wal": 1017,
      "myśli": 1018,
      "trzeba": 1019,
      "nku": 1020,
      "zdo": 1021,
      "jeśli": 1022,
      "ofi": 1023,
      "spoko": 1024,
      "\".": 1025,
      "knął": 1026,
      "szło": 1027,
      "Bóg": 1028,
      "wszystkich": 1029,
      "jakie": 1030,
      "dem": 1031,
      "rzył": 1032,
      "rami": 1033,
      "zł": 1034,
      "pol": 1035,
      "szli": 1036,
      "pla": 1037,
      "tere": 1038,
      "którego": 1039,
      "mam": 1040,
      "ręce": 1041,
      "wego": 1042,
      "przecie": 1043,
      "woli": 1044,
      "Wię": 1045,
      "łał": 1046,
      "pli": 1047,
      "wały": 1048,
      "dzę": 1049,
      "kobie": 1050,
      "dów": 1051,
      "nk": 1052,
      "powi": 1053,
      "nki": 1054,
      "Zby": 1055,
      "por": 1056,
      "pierwszy": 1057,
      "piero": 1058,
      "stąpi": 1059,
      "lep": 1060,
      "mają": 1061,
      "dwo": 1062,
      "dobrze": 1063,
      "cje": 1064,
      "szego": 1065,
      "tłu": 1066,
      "coraz": 1067,
      "obie": 1068,
      "el": 1069,
      "gdyby": 1070,
      "stanowi": 1071,
      "pis": 1072,
      "taki": 1073,
      "ho": 1074,
      "żyć": 1075,
      "właśnie": 1076,
      "dalej": 1077,
      "ek": 1078,
      "fu": 1079,
      "stała": 1080,
      "bardziej": 1081,
      "czer": 1082,
      "bla": 1083,
      "ństwa": 1084,
      "iż": 1085,
      ").": 1086,
      "Wołody": 1087,
      "Wołodyj": 1088,
      "dowa": 1089,
      "parł": 1090,
      "pom": 1091,
      "gna": 1092,
      "rząd": 1093,
      "wiem": 1094,
      "pło": 1095,
      "wszystkie": 1096,
      "rodzi": 1097,
      "pró": 1098,
      "chciał": 1099,
      "równie": 1100,
      "chwy": 1101,
      "kona": 1102,
      "Pi": 1103,
      "Pod": 1104,
      "kło": 1105,
      "Bog": 1106,
      "wido": 1107,
      "wym": 1108,
      "śród": 1109,
      "powiada": 1110,
      "isto": 1111,
      "zam": 1112,
      "wych": 1113,
      "nowu": 1114,
      "szał": 1115,
      "nimi": 1116,
      "patrzy": 1117,
      "dziś": 1118,
      "chi": 1119,
      "pisa": 1120,
      "oni": 1121,
      "one": 1122,
      "masz": 1123,
      "póź": 1124,
      "”.": 1125,
      "żej": 1126,
      "zrobi": 1127,
      "zawsze": 1128,
      "kapła": 1129,
      "wój": 1130,
      "No": 1131,
      "spraw": 1132,
      "dziew": 1133,
      "puści": 1134,
      "każdy": 1135,
      "sem": 1136,
      "bezpie": 1137,
      "rzeczy": 1138,
      "dzię": 1139,
      "ruszy": 1140,
      "czny": 1141,
      "dra": 1142,
      "spe": 1143,
      "świat": 1144,
      "Kmicic": 1145,
      "lek": 1146,
      "człowiek": 1147,
      "sobą": 1148,
      "ode": 1149,
      "mości": 1150,
      "wszyscy": 1151,
      "powo": 1152,
      "szła": 1153,
      "miała": 1154,
      "lepie": 1155,
      "tach": 1156,
      "pamię": 1157,
      "głowę": 1158,
      "noc": 1159,
      "dom": 1160,
      "czasu": 1161,
      "szczy": 1162,
      "zby": 1163,
      "cznej": 1164,
      "wyda": 1165,
      "nosi": 1166,
      "świad": 1167,
      "try": 1168,
      "au": 1169,
      "owania": 1170,
      "niech": 1171,
      "Więc": 1172,
      "razem": 1173,
      "wło": 1174,
      "zale": 1175,
      "stało": 1176,
      "Wa": 1177,
      "ucie": 1178,
      "spa": 1179,
      "myślał": 1180,
      "żad": 1181,
      "dr": 1182,
      "tku": 1183,
      "pozna": 1184,
      "man": 1185,
      "nach": 1186,
      "wrócił": 1187,
      "kazał": 1188,
      "posta": 1189,
      "owała": 1190,
      "cem": 1191,
      "obo": 1192,
      "chem": 1193,
      "cych": 1194,
      "dej": 1195,
      "sów": 1196,
      "ludzie": 1197,
      "om": 1198,
      "drugi": 1199,
      "kać": 1200,
      "prz": 1201,
      "pięk": 1202,
      "czar": 1203,
      "prawie": 1204,
      "Mar": 1205,
      "następ": 1206,
      "znowu": 1207,
      "Lu": 1208,
      "żu": 1209,
      "ia": 1210,
      "skar": 1211,
      "dale": 1212,
      "cach": 1213,
      "tni": 1214,
      "jeno": 1215,
      "kilku": 1216,
      "kr": 1217,
      "gdyż": 1218,
      "dzieci": 1219,
      "śpie": 1220,
      "Niech": 1221,
      "mość": 1222,
      "szcz": 1223,
      "lne": 1224,
      "Da": 1225,
      "czyna": 1226,
      "prac": 1227,
      "Cze": 1228,
      "dło": 1229,
      "głę": 1230,
      "god": 1231,
      "lem": 1232,
      "przyj": 1233,
      "będą": 1234,
      "Pol": 1235,
      "Krzy": 1236,
      "oto": 1237,
      "twie": 1238,
      "prę": 1239,
      "II": 1240,
      "ego": 1241,
      "którą": 1242,
      "tor": 1243,
      "szlach": 1244,
      "zwie": 1245,
      "Ku": 1246,
      "dząc": 1247,
      "zę": 1248,
      "takie": 1249,
      "),": 1250,
      "Kie": 1251,
      "kał": 1252,
      "czyli": 1253,
      "ktu": 1254,
      "Me": 1255,
      "dli": 1256,
      "same": 1257,
      "dzenia": 1258,
      "znów": 1259,
      "kocha": 1260,
      "Dla": 1261,
      "gów": 1262,
      "ner": 1263,
      "drugie": 1264,
      "kty": 1265,
      "król": 1266,
      "sław": 1267,
      "odparł": 1268,
      "również": 1269,
      "jcie": 1270,
      "nió": 1271,
      "ec": 1272,
      "gła": 1273,
      "skim": 1274,
      "trafi": 1275,
      "słowa": 1276,
      "tó": 1277,
      "zja": 1278,
      "środ": 1279,
      "rozumie": 1280,
      "potrze": 1281,
      "powiedział": 1282,
      "dwó": 1283,
      "nowa": 1284,
      "wróci": 1285,
      "mina": 1286,
      "pole": 1287,
      "tyle": 1288,
      "kości": 1289,
      "życie": 1290,
      "rek": 1291,
      "ludz": 1292,
      "ziemi": 1293,
      "świą": 1294,
      "byli": 1295,
      "sami": 1296,
      "sce": 1297,
      "glą": 1298,
      "rzecz": 1299,
      "dość": 1300,
      "kowa": 1301,
      "niósł": 1302,
      "Bi": 1303,
      "kow": 1304,
      "Roz": 1305,
      "jechał": 1306,
      "Tym": 1307,
      "Mu": 1308,
      "niał": 1309,
      "mój": 1310,
      "Wołodyjowski": 1311,
      "ówczas": 1312,
      "potę": 1313,
      "Pro": 1314,
      "nigdy": 1315,
      "wam": 1316,
      "dia": 1317,
      "dzieli": 1318,
      "wreszcie": 1319,
      "przyjacie": 1320,
      "brze": 1321,
      "ntów": 1322,
      "Kto": 1323,
      "nka": 1324,
      "cięż": 1325,
      "odpowiedział": 1326,
      "sięcy": 1327,
      "wyso": 1328,
      "rok": 1329,
      "drz": 1330,
      "got": 1331,
      "mor": 1332,
      "stary": 1333,
      "taj": 1334,
      "spoj": 1335,
      "ią": 1336,
      "wości": 1337,
      "Pra": 1338,
      "stanie": 1339,
      "twarz": 1340,
      "czenie": 1341,
      "czenia": 1342,
      "towarzy": 1343,
      "kle": 1344,
      "poda": 1345,
      "dopiero": 1346,
      "osob": 1347,
      "ogro": 1348,
      "War": 1349,
      "konie": 1350,
      "wić": 1351,
      "bywa": 1352,
      "kład": 1353,
      "lepiej": 1354,
      "ony": 1355,
      "strony": 1356,
      "jedy": 1357,
      "zdr": 1358,
      "jestem": 1359,
      "kowi": 1360,
      "szka": 1361,
      "nagle": 1362,
      "ns": 1363,
      "Może": 1364,
      "twier": 1365,
      "ństwo": 1366,
      "mowa": 1367,
      "innych": 1368,
      "żał": 1369,
      "spokoj": 1370,
      "głowy": 1371,
      "pia": 1372,
      "zupeł": 1373,
      "panu": 1374,
      "Już": 1375,
      "chyba": 1376,
      "ntu": 1377,
      "jął": 1378,
      "życia": 1379,
      "ol": 1380,
      "wyż": 1381,
      "sposób": 1382,
      "In": 1383,
      "ele": 1384,
      "pierwsze": 1385,
      "łam": 1386,
      "wiado": 1387,
      "ląd": 1388,
      "Jest": 1389,
      "Cza": 1390,
      "dek": 1391,
      "Skrze": 1392,
      "został": 1393,
      "padł": 1394,
      "okre": 1395,
      "Skrzetu": 1396,
      "jeżeli": 1397,
      "ria": 1398,
      "mą": 1399,
      "We": 1400,
      "chwilę": 1401,
      "zgo": 1402,
      "lew": 1403,
      "długo": 1404,
      "ńca": 1405,
      "dna": 1406,
      "dziec": 1407,
      "ude": 1408,
      "lan": 1409,
      "spoli": 1410,
      "usz": 1411,
      "ina": 1412,
      "zach": 1413,
      "wiąza": 1414,
      "mówić": 1415,
      "czki": 1416,
      "zawołał": 1417,
      "lił": 1418,
      "pospoli": 1419,
      "Wszy": 1420,
      "cznego": 1421,
      "mini": 1422,
      "pracy": 1423,
      "nością": 1424,
      "ster": 1425,
      "jakiś": 1426,
      "dła": 1427,
      "biera": 1428,
      "tel": 1429,
      "nikt": 1430,
      "ciebie": 1431,
      "chorą": 1432,
      "Mich": 1433,
      "rozma": 1434,
      "wśród": 1435,
      "gospo": 1436,
      "swoje": 1437,
      "sji": 1438,
      "dlatego": 1439,
      "polity": 1440,
      "mat": 1441,
      "gani": 1442,
      "ostat": 1443,
      "krót": 1444,
      "żem": 1445,
      "!”": 1446,
      "cznym": 1447,
      "grze": 1448,
      "żd": 1449,
      "mal": 1450,
      "Ży": 1451,
      "łę": 1452,
      "temu": 1453,
      "odrzekł": 1454,
      "obec": 1455,
      "zes": 1456,
      "dno": 1457,
      "kli": 1458,
      "pój": 1459,
      "wraca": 1460,
      "sztu": 1461,
      "widział": 1462,
      "strasz": 1463,
      "krę": 1464,
      "dal": 1465,
      "gip": 1466,
      "zwa": 1467,
      "później": 1468,
      "niach": 1469,
      "śle": 1470,
      "tery": 1471,
      "bą": 1472,
      "trochę": 1473,
      "was": 1474,
      "Re": 1475,
      "emu": 1476,
      "wiele": 1477,
      "szep": 1478,
      "rękę": 1479,
      "het": 1480,
      "ratu": 1481,
      "wiesz": 1482,
      "nocy": 1483,
      "dwóch": 1484,
      "ak": 1485,
      "spytał": 1486,
      "zbli": 1487,
      "kol": 1488,
      "ti": 1489,
      "wzią": 1490,
      "--": 1491,
      "rzekła": 1492,
      "rywa": 1493,
      "Że": 1494,
      "bia": 1495,
      "Jan": 1496,
      "ST": 1497,
      "gał": 1498,
      "che": 1499,
      "prawdę": 1500,
      "stały": 1501,
      "nicju": 1502,
      "ple": 1503,
      "rach": 1504,
      "śni": 1505,
      "wość": 1506,
      "sprawie": 1507,
      "Winicju": 1508,
      "wszystkim": 1509,
      "dziw": 1510,
      "Naj": 1511,
      "cier": 1512,
      "skrzy": 1513,
      "ile": 1514,
      "czaj": 1515,
      "głu": 1516,
      "mod": 1517,
      "pal": 1518,
      "nta": 1519,
      "zabi": 1520,
      "woła": 1521,
      "stru": 1522,
      "ust": 1523,
      "dali": 1524,
      "cer": 1525,
      "panna": 1526,
      "głów": 1527,
      "przód": 1528,
      "Go": 1529,
      "trą": 1530,
      "śla": 1531,
      "czeka": 1532,
      "rad": 1533,
      "wiek": 1534,
      "Dzi": 1535,
      "gli": 1536,
      "twar": 1537,
      "ńskiego": 1538,
      "Szwe": 1539,
      "he": 1540,
      "komu": 1541,
      "chłop": 1542,
      "kaza": 1543,
      "rii": 1544,
      "czną": 1545,
      "tysięcy": 1546,
      "słucha": 1547,
      "widzi": 1548,
      "Zbyszko": 1549,
      "ron": 1550,
      "cami": 1551,
      "Be": 1552,
      "robo": 1553,
      "czasie": 1554,
      "My": 1555,
      "służ": 1556,
      "ono": 1557,
      "kamie": 1558,
      "pią": 1559,
      "uśmie": 1560,
      "intere": 1561,
      "Warsza": 1562,
      "tąd": 1563,
      "najmniej": 1564,
      "\",": 1565,
      "dziesią": 1566,
      "Bogu": 1567,
      "razy": 1568,
      "ucz": 1569,
      "uli": 1570,
      "byś": 1571,
      "właści": 1572,
      "ali": 1573,
      "kogo": 1574,
      "gły": 1575,
      "rzyć": 1576,
      "puł": 1577,
      "Tymczasem": 1578,
      "swego": 1579,
      "dosta": 1580,
      "Mać": 1581,
      "sek": 1582,
      "owanie": 1583,
      "On": 1584,
      "ażeby": 1585,
      "raź": 1586,
      "logi": 1587,
      "całą": 1588,
      "publi": 1589,
      "daj": 1590,
      "Jeśli": 1591,
      "nii": 1592,
      "wasz": 1593,
      "wania": 1594,
      "razie": 1595,
      "miasta": 1596,
      "szyb": 1597,
      "szczegó": 1598,
      "kole": 1599,
      "mach": 1600,
      "ur": 1601,
      "mieć": 1602,
      "klę": 1603,
      "sen": 1604,
      "kazu": 1605,
      "sę": 1606,
      "koniec": 1607,
      "proce": 1608,
      "tele": 1609,
      "per": 1610,
      "zbyt": 1611,
      "wielki": 1612,
      "serce": 1613,
      "zbro": 1614,
      "dach": 1615,
      "nar": 1616,
      "męż": 1617,
      "bły": 1618,
      "widać": 1619,
      "wca": 1620,
      "szły": 1621,
      "tami": 1622,
      "bó": 1623,
      "net": 1624,
      "księcia": 1625,
      "uj": 1626,
      "strzy": 1627,
      "spotka": 1628,
      "świecie": 1629,
      "dwu": 1630,
      "mną": 1631,
      "samy": 1632,
      "ształ": 1633,
      "lny": 1634,
      "zwał": 1635,
      "głosem": 1636,
      "brzy": 1637,
      "żenie": 1638,
      "nęły": 1639,
      "zupełnie": 1640,
      "obro": 1641,
      "resztą": 1642,
      "czna": 1643,
      "stoj": 1644,
      "krew": 1645,
      "wspo": 1646,
      "dziesię": 1647,
      "stępu": 1648,
      "przer": 1649,
      "der": 1650,
      "sp": 1651,
      "przedsta": 1652,
      "chro": 1653,
      "gląd": 1654,
      "owią": 1655,
      "tom": 1656,
      "kój": 1657,
      "mały": 1658,
      "pił": 1659,
      "nadzie": 1660,
      "wało": 1661,
      "śmierci": 1662,
      "Pie": 1663,
      "gości": 1664,
      "lnic": 1665,
      "ot": 1666,
      "będę": 1667,
      "mieli": 1668,
      "strz": 1669,
      "mimo": 1670,
      "patrz": 1671,
      "zoba": 1672,
      "maga": 1673,
      "obu": 1674,
      "czoraj": 1675,
      "decy": 1676,
      "łów": 1677,
      "organi": 1678,
      "mogą": 1679,
      "wówczas": 1680,
      "nau": 1681,
      "zm": 1682,
      "jeżd": 1683,
      "skła": 1684,
      "młody": 1685,
      "lnych": 1686,
      "gry": 1687,
      "komi": 1688,
      "wtedy": 1689,
      "chodzą": 1690,
      "twarzy": 1691,
      "swoją": 1692,
      "zaczę": 1693,
      "wiał": 1694,
      "maty": 1695,
      "mogę": 1696,
      "możli": 1697,
      "bud": 1698,
      "moje": 1699,
      "infor": 1700,
      "wzię": 1701,
      "wiąz": 1702,
      "wraz": 1703,
      "wody": 1704,
      "licz": 1705,
      "dzenie": 1706,
      "kolwiek": 1707,
      "smu": 1708,
      "glę": 1709,
      "gach": 1710,
      "jednym": 1711,
      "Andrze": 1712,
      "wicz": 1713,
      "Cho": 1714,
      "zdu": 1715,
      "zabe": 1716,
      "mogła": 1717,
      "ckiego": 1718,
      "korzy": 1719,
      "szczęśli": 1720,
      "wska": 1721,
      "wiście": 1722,
      "nęli": 1723,
      "Jako": 1724,
      "kształ": 1725,
      "dam": 1726,
      "sach": 1727,
      "nieco": 1728,
      "Ram": 1729,
      "fara": 1730,
      "puszcza": 1731,
      "ciaż": 1732,
      "dko": 1733,
      "pomo": 1734,
      "takim": 1735,
      "drodze": 1736,
      "Dob": 1737,
      "nowe": 1738,
      "uda": 1739,
      "drzwi": 1740,
      "Dzie": 1741,
      "cją": 1742,
      "takich": 1743,
      "inne": 1744,
      "swoich": 1745,
      "rak": 1746,
      "bec": 1747,
      "jednej": 1748,
      "jaką": 1749,
      "powiedzieć": 1750,
      "drogi": 1751,
      "Al": 1752,
      "row": 1753,
      "słów": 1754,
      "rzenia": 1755,
      "zapa": 1756,
      "dzien": 1757,
      "Panie": 1758,
      "wzglę": 1759,
      "skoń": 1760,
      "choćby": 1761,
      "rycerz": 1762,
      "koło": 1763,
      "kolej": 1764,
      "So": 1765,
      "Mie": 1766,
      "kul": 1767,
      "duszy": 1768,
      "głową": 1769,
      "zwycię": 1770,
      "Izabe": 1771,
      "cj": 1772,
      "kazy": 1773,
      "obowią": 1774,
      "znala": 1775,
      "ogó": 1776,
      "pierw": 1777,
      "Kiedy": 1778,
      "wil": 1779,
      "razu": 1780,
      "zmar": 1781,
      "zła": 1782,
      "czał": 1783,
      "polski": 1784,
      "groma": 1785,
      "list": 1786,
      "jas": 1787,
      "krzyknął": 1788,
      "jącego": 1789,
      "ponie": 1790,
      "tać": 1791,
      "szczęście": 1792,
      "prowadzi": 1793,
      "powin": 1794,
      "wro": 1795,
      "wiedział": 1796,
      "cego": 1797,
      "Boże": 1798,
      "zaczą": 1799,
      "tow": 1800,
      "drogę": 1801,
      "kur": 1802,
      "zaj": 1803,
      "bił": 1804,
      "Teraz": 1805,
      "brał": 1806,
      "śniej": 1807,
      "dobry": 1808,
      "serca": 1809,
      "chwila": 1810,
      "win": 1811,
      "żar": 1812,
      "wielu": 1813,
      "trzymał": 1814,
      "Egip": 1815,
      "mili": 1816,
      "dobre": 1817,
      "śmierć": 1818,
      "przej": 1819,
      "lud": 1820,
      "wybo": 1821,
      "prawo": 1822,
      "wszel": 1823,
      "lin": 1824,
      "boga": 1825,
      "Wszyst": 1826,
      "naz": 1827,
      "nato": 1828,
      "taka": 1829,
      "bior": 1830,
      "Ze": 1831,
      "naprzód": 1832,
      "pada": 1833,
      "jedzie": 1834,
      "królew": 1835,
      "kraj": 1836,
      "18": 1837,
      "ist": 1838,
      "tne": 1839,
      "jechać": 1840,
      "zer": 1841,
      "myśle": 1842,
      "świąty": 1843,
      "opie": 1844,
      "szczo": 1845,
      "często": 1846,
      "Chmie": 1847,
      "jącym": 1848,
      "rzuca": 1849,
      "daje": 1850,
      "całej": 1851,
      "człowieka": 1852,
      "najwięk": 1853,
      "ńce": 1854,
      "Niem": 1855,
      "całe": 1856,
      "rado": 1857,
      "hi": 1858,
      "żenia": 1859,
      "znale": 1860,
      "Boga": 1861,
      "uży": 1862,
      "nasz": 1863,
      "wiać": 1864,
      "skó": 1865,
      "umie": 1866,
      "dostoj": 1867,
      "cio": 1868,
      "łek": 1869,
      "sier": 1870,
      "kraju": 1871,
      "inaczej": 1872,
      "Ha": 1873,
      "poja": 1874,
      "poło": 1875,
      "żony": 1876,
      "snął": 1877,
      "nowi": 1878,
      "biał": 1879,
      "chnął": 1880,
      "łó": 1881,
      "niesie": 1882,
      "tymi": 1883,
      "fil": 1884,
      "pić": 1885,
      "prawda": 1886,
      "Ki": 1887,
      "dowie": 1888,
      "powta": 1889,
      "ńców": 1890,
      "stry": 1891,
      "zami": 1892,
      "Był": 1893,
      "tała": 1894,
      "rozm": 1895,
      "wcze": 1896,
      "staro": 1897,
      "przecież": 1898,
      "Dan": 1899,
      "połu": 1900,
      "nęło": 1901,
      "miejscu": 1902,
      "Ksią": 1903,
      "bło": 1904,
      "czyła": 1905,
      "Hi": 1906,
      "dawało": 1907,
      "zji": 1908,
      "cieka": 1909,
      "sio": 1910,
      "czach": 1911,
      "Winicjusz": 1912,
      "języ": 1913,
      "ble": 1914,
      "kosz": 1915,
      "rady": 1916,
      "zacji": 1917,
      "pita": 1918,
      "takiego": 1919,
      "Cz": 1920,
      "mienia": 1921,
      "swoim": 1922,
      "La": 1923,
      "końcu": 1924,
      "jakieś": 1925,
      "lnego": 1926,
      "pio": 1927,
      "brać": 1928,
      "Juran": 1929,
      "współ": 1930,
      "fir": 1931,
      "mogli": 1932,
      "Ci": 1933,
      "Gdzie": 1934,
      "zasa": 1935,
      "Fe": 1936,
      "lle": 1937,
      "zię": 1938,
      "dziwił": 1939,
      "bio": 1940,
      "Maćko": 1941,
      "tura": 1942,
      "Rzeczy": 1943,
      "Mó": 1944,
      "pozy": 1945,
      "wojny": 1946,
      "200": 1947,
      "nków": 1948,
      "czyz": 1949,
      "muje": 1950,
      "taką": 1951,
      "niepo": 1952,
      "zaję": 1953,
      "ścija": 1954,
      "rozle": 1955,
      "świata": 1956,
      "lał": 1957,
      "jeź": 1958,
      "czek": 1959,
      "bić": 1960,
      "społe": 1961,
      "owia": 1962,
      "otwar": 1963,
      "tysią": 1964,
      "skiem": 1965,
      "ktor": 1966,
      "dziewczy": 1967,
      "Bu": 1968,
      "pał": 1969,
      "osób": 1970,
      "swej": 1971,
      "ziemię": 1972,
      "piersi": 1973,
      "Przez": 1974,
      "chrze": 1975,
      "mało": 1976,
      "siada": 1977,
      "ren": 1978,
      "chociaż": 1979,
      "menta": 1980,
      "chorąg": 1981,
      "cóż": 1982,
      "sprze": 1983,
      "wanie": 1984,
      "przyszło": 1985,
      "Skrzetuski": 1986,
      "tna": 1987,
      "zbie": 1988,
      "pięć": 1989,
      "miejsce": 1990,
      "lata": 1991,
      "prawa": 1992,
      "wór": 1993,
      "jednego": 1994,
      "należy": 1995,
      "niła": 1996,
      "duje": 1997,
      "rzucił": 1998,
      "gląda": 1999,
      "Oto": 2000,
      "góry": 2001,
      "jaka": 2002,
      "inni": 2003,
      "usza": 2004,
      "zgi": 2005,
      "dała": 2006,
      "ńcu": 2007,
      "tury": 2008,
      "nogi": 2009,
      "waćpan": 2010,
      "ńskich": 2011,
      "Se": 2012,
      "uczu": 2013,
      "zapew": 2014,
      "ryka": 2015,
      "lar": 2016,
      "uważa": 2017,
      "otwo": 2018,
      "owali": 2019,
      "giem": 2020,
      "owskiego": 2021,
      "Staś": 2022,
      "wąt": 2023,
      "ciągnął": 2024,
      "jakim": 2025,
      "jąca": 2026,
      "stronę": 2027,
      "He": 2028,
      "wyj": 2029,
      "wypad": 2030,
      "wojska": 2031,
      "zapytał": 2032,
      "cząc": 2033,
      "powtó": 2034,
      "stare": 2035,
      "sama": 2036,
      "głowie": 2037,
      "Chmielnic": 2038,
      "bła": 2039,
      "nienia": 2040,
      "znaczy": 2041,
      "okru": 2042,
      "bezpiecze": 2043,
      "wer": 2044,
      "zaczął": 2045,
      "podej": 2046,
      "preze": 2047,
      "czka": 2048,
      "prezy": 2049,
      "wczoraj": 2050,
      "wasza": 2051,
      "czony": 2052,
      "sja": 2053,
      "póki": 2054,
      "zdy": 2055,
      "wale": 2056,
      "jecha": 2057,
      "moja": 2058,
      "jącą": 2059,
      "ckie": 2060,
      "lskiego": 2061,
      "tny": 2062,
      "tobie": 2063,
      "wielkie": 2064,
      "ckich": 2065,
      "kwi": 2066,
      "lnym": 2067,
      "nieprzyjacie": 2068,
      "miały": 2069,
      "mru": 2070,
      "cieli": 2071,
      "cym": 2072,
      "samym": 2073,
      "mio": 2074,
      "ałam": 2075,
      "rozpa": 2076,
      "miało": 2077,
      "ment": 2078,
      "wódz": 2079,
      "miłości": 2080,
      "ńskiej": 2081,
      "dziedzi": 2082,
      "stać": 2083,
      "potrzeb": 2084,
      "wojsk": 2085,
      "lony": 2086,
      "ktoś": 2087,
      "widok": 2088,
      "jedną": 2089,
      "okoli": 2090,
      "chrześcija": 2091,
      "LE": 2092,
      "czem": 2093,
      "ręką": 2094,
      "tymczasem": 2095,
      "chodził": 2096,
      "lnej": 2097,
      "wdzię": 2098,
      "wobec": 2099,
      "czeniu": 2100,
      "miesią": 2101,
      "tur": 2102,
      "tychmiast": 2103,
      "bój": 2104,
      "obok": 2105,
      "pokoju": 2106,
      "Ar": 2107,
      "Sy": 2108,
      "dle": 2109,
      "siadł": 2110,
      "krwi": 2111,
      "zamk": 2112,
      "wnę": 2113,
      "ciec": 2114,
      "pat": 2115,
      "około": 2116,
      "ciał": 2117,
      "res": 2118,
      "prosi": 2119,
      "Tam": 2120,
      "potęż": 2121,
      "ńskie": 2122,
      "dało": 2123,
      "szero": 2124,
      "prawdzie": 2125,
      "sąd": 2126,
      "podniósł": 2127,
      "właszcza": 2128,
      "niebie": 2129,
      "daleko": 2130,
      "głębo": 2131,
      "pospolitej": 2132,
      "niebo": 2133,
      "ber": 2134,
      "pusty": 2135,
      "dego": 2136,
      "histo": 2137,
      "wach": 2138,
      "zem": 2139,
      "Ne": 2140,
      "szwe": 2141,
      "szem": 2142,
      "zdra": 2143,
      "chni": 2144,
      "państwa": 2145,
      "gospodar": 2146,
      "dziesiąt": 2147,
      "cała": 2148,
      "zmu": 2149,
      "gorą": 2150,
      "owane": 2151,
      "prawdzi": 2152,
      "poczęła": 2153,
      "ogrom": 2154,
      "szwedz": 2155,
      "cąc": 2156,
      "fo": 2157,
      "konia": 2158,
      "gór": 2159,
      "Fa": 2160,
      "ramiona": 2161,
      "wcale": 2162,
      "ukry": 2163,
      "jemy": 2164,
      "warto": 2165,
      "mówię": 2166,
      "idzie": 2167,
      "Petro": 2168,
      "let": 2169,
      "drugiej": 2170,
      "Michał": 2171,
      "olbrzy": 2172,
      "parę": 2173,
      "czyn": 2174,
      "Petroniu": 2175,
      "natychmiast": 2176,
      "przekona": 2177,
      "Gdyby": 2178,
      "patrzył": 2179,
      "samego": 2180,
      "spodzie": 2181,
      "jesteś": 2182,
      "ądź": 2183,
      "grani": 2184,
      "trza": 2185,
      "czerwo": 2186,
      "pomoc": 2187,
      "minu": 2188,
      "ul": 2189,
      "wski": 2190,
      "Tata": 2191,
      "trud": 2192,
      "199": 2193,
      "Wła": 2194,
      "żało": 2195,
      "ciła": 2196,
      "dlaczego": 2197,
      "Słu": 2198,
      "rusze": 2199,
      "stosu": 2200,
      "każdym": 2201,
      "Rzeczypospolitej": 2202,
      "pali": 2203,
      "chcesz": 2204,
      "Ot": 2205,
      "Ody": 2206,
      "pała": 2207,
      "zwrócił": 2208,
      "jesz": 2209,
      "gor": 2210,
      "doty": 2211,
      "Sam": 2212,
      "Ligi": 2213,
      "Czar": 2214,
      "Bar": 2215,
      "iść": 2216,
      "swój": 2217,
      "wybu": 2218,
      "tua": 2219,
      "prostu": 2220,
      "Kon": 2221,
      "Ry": 2222,
      "naprawdę": 2223,
      "niez": 2224,
      "znaleź": 2225,
      "gami": 2226,
      "albowiem": 2227,
      "Sie": 2228,
      "Ten": 2229,
      "cka": 2230,
      "west": 2231,
      "com": 2232,
      "łeś": 2233,
      "króla": 2234,
      "Wiel": 2235,
      "nagro": 2236,
      "rzem": 2237,
      "czone": 2238,
      "została": 2239,
      "chodzić": 2240,
      "Cóż": 2241,
      "ilo": 2242,
      "przypad": 2243,
      "odda": 2244,
      "Pola": 2245,
      "ad": 2246,
      "niejsze": 2247,
      "prost": 2248,
      "części": 2249,
      "Chry": 2250,
      "oka": 2251,
      "znać": 2252,
      "Potem": 2253,
      "pracow": 2254,
      "Euro": 2255,
      "okaz": 2256,
      "listy": 2257,
      "przygo": 2258,
      "Przed": 2259,
      "ić": 2260,
      "świet": 2261,
      "odpowiedzi": 2262,
      "musiał": 2263,
      "świ": 2264,
      "…”": 2265,
      "wyja": 2266,
      "Jeżeli": 2267,
      "oczyma": 2268,
      "Trze": 2269,
      "ceza": 2270,
      "zio": 2271,
      "ojciec": 2272,
      "jeżdża": 2273,
      "Ru": 2274,
      "kły": 2275,
      "tajem": 2276,
      "proszę": 2277,
      "hetma": 2278,
      "słyszał": 2279,
      "Spo": 2280,
      "cór": 2281,
      "nieść": 2282,
      "kola": 2283,
      "siły": 2284,
      "pozosta": 2285,
      "komen": 2286,
      "obra": 2287,
      "stos": 2288,
      "Bohu": 2289,
      "obej": 2290,
      "produ": 2291,
      "zwykle": 2292,
      "Nel": 2293,
      "stem": 2294,
      "koła": 2295,
      "bit": 2296,
      "progra": 2297,
      "szybko": 2298,
      "yy": 2299,
      "wili": 2300,
      "wieczo": 2301,
      "gać": 2302,
      "ciąż": 2303,
      "Andrzej": 2304,
      "sma": 2305,
      "chcę": 2306,
      "podsta": 2307,
      "powiem": 2308,
      "Jagie": 2309,
      "długi": 2310,
      "żna": 2311,
      "jącej": 2312,
      "ręku": 2313,
      "ciągle": 2314,
      "prócz": 2315,
      "auto": 2316,
      "zwłaszcza": 2317,
      "śnia": 2318,
      "dług": 2319,
      "wziął": 2320,
      "śre": 2321,
      "woda": 2322,
      "dzej": 2323,
      "grzy": 2324,
      "knia": 2325,
      "kan": 2326,
      "nasze": 2327,
      "rowi": 2328,
      "poch": 2329,
      "doj": 2330,
      "znał": 2331,
      "żyła": 2332,
      "tmo": 2333,
      "rat": 2334,
      "kup": 2335,
      "poczęli": 2336,
      "Au": 2337,
      "przyję": 2338,
      "Polsce": 2339,
      "De": 2340,
      "wpły": 2341,
      "cześnie": 2342,
      "syn": 2343,
      "słusz": 2344,
      "Si": 2345,
      "rzenie": 2346,
      "mamy": 2347,
      "dużo": 2348,
      "Jedna": 2349,
      "swojej": 2350,
      "poczęły": 2351,
      "bry": 2352,
      "dowo": 2353,
      "kont": 2354,
      "żeś": 2355,
      "owany": 2356,
      "udział": 2357,
      "wiadomo": 2358,
      "Ramzes": 2359,
      "niewol": 2360,
      "część": 2361,
      "miłość": 2362,
      "Dzię": 2363,
      "nikiem": 2364,
      "mian": 2365,
      "wzro": 2366,
      "zamie": 2367,
      "miejsca": 2368,
      "pora": 2369,
      "nowo": 2370,
      "wnie": 2371,
      "wnio": 2372,
      "nien": 2373,
      "stów": 2374,
      "rski": 2375,
      "naście": 2376,
      "początku": 2377,
      "biegł": 2378,
      "Ce": 2379,
      "zało": 2380,
      "ojca": 2381,
      "Danu": 2382,
      "dodał": 2383,
      "10": 2384,
      "zdzi": 2385,
      "koni": 2386,
      "poru": 2387,
      "Jego": 2388,
      "zarazem": 2389,
      "ciel": 2390,
      "nąwszy": 2391,
      "proje": 2392,
      "ziem": 2393,
      "puścił": 2394,
      "zim": 2395,
      "rol": 2396,
      "widzę": 2397,
      "groź": 2398,
      "łego": 2399,
      "Nic": 2400,
      "błę": 2401,
      "mojej": 2402,
      "mysł": 2403,
      "żona": 2404,
      "ruszył": 2405,
      "Ge": 2406,
      "zmia": 2407,
      "narod": 2408,
      "kuję": 2409,
      "Praw": 2410,
      "15": 2411,
      "rzeć": 2412,
      "rew": 2413,
      "obraz": 2414,
      "rium": 2415,
      "stępo": 2416,
      "Zy": 2417,
      "speł": 2418,
      "niku": 2419,
      "leń": 2420,
      "szył": 2421,
      "pil": 2422,
      "innego": 2423,
      "wszech": 2424,
      "wspó": 2425,
      "ogar": 2426,
      "ponad": 2427,
      "waru": 2428,
      "lach": 2429,
      "ńskim": 2430,
      "urzę": 2431,
      "ciała": 2432,
      "weso": 2433,
      "sytua": 2434,
      "powodu": 2435,
      "następnie": 2436,
      "niemie": 2437,
      "sząc": 2438,
      "szere": 2439,
      "całym": 2440,
      "żołnierzy": 2441,
      "ELE": 2442,
      "spi": 2443,
      "stoi": 2444,
      "niejszy": 2445,
      "szuka": 2446,
      "nne": 2447,
      "czło": 2448,
      "potrafi": 2449,
      "fina": 2450,
      "chów": 2451,
      "podczas": 2452,
      "trzech": 2453,
      "trzymać": 2454,
      "ił": 2455,
      "ckiej": 2456,
      "klu": 2457,
      "pienię": 2458,
      "górę": 2459,
      "powiadał": 2460,
      "mate": 2461,
      "miecz": 2462,
      "prawi": 2463,
      "skał": 2464,
      "prowadził": 2465,
      "Cie": 2466,
      "oczach": 2467,
      "lności": 2468,
      "życiu": 2469,
      "szak": 2470,
      "znajo": 2471,
      "Her": 2472,
      "dąc": 2473,
      "mieniu": 2474,
      "tutaj": 2475,
      "wieku": 2476,
      "Bę": 2477,
      "tys": 2478,
      "czyni": 2479,
      "przykład": 2480,
      "sposob": 2481,
      "dawno": 2482,
      "mistrz": 2483,
      "wyszedł": 2484,
      "Kró": 2485,
      "poprzed": 2486,
      "pomina": 2487,
      "lić": 2488,
      "lega": 2489,
      "jutro": 2490,
      "siedzi": 2491,
      "pozwoli": 2492,
      "dziecko": 2493,
      "grz": 2494,
      "dzwo": 2495,
      "lite": 2496,
      "spostrze": 2497,
      "ogni": 2498,
      "soby": 2499,
      "Książę": 2500,
      "Kor": 2501,
      "kara": 2502,
      "dzieje": 2503,
      "Pier": 2504,
      "zawie": 2505,
      "najlep": 2506,
      "FI": 2507,
      "miar": 2508,
      "przewo": 2509,
      "kwa": 2510,
      "państ": 2511,
      "ściu": 2512,
      "zywa": 2513,
      "doda": 2514,
      "czych": 2515,
      "informa": 2516,
      "Pu": 2517,
      "lną": 2518,
      "jechali": 2519,
      "para": 2520,
      "nom": 2521,
      "mieni": 2522,
      "tyka": 2523,
      "oczu": 2524,
      "związ": 2525,
      "żegna": 2526,
      "wami": 2527,
      "moim": 2528,
      "pułkow": 2529,
      "dne": 2530,
      "pokry": 2531,
      "pomyślał": 2532,
      "pienią": 2533,
      "Powie": 2534,
      "tch": 2535,
      "zresztą": 2536,
      "dotąd": 2537,
      "am": 2538,
      "swych": 2539,
      "raczej": 2540,
      "głowa": 2541,
      "kąd": 2542,
      "ucze": 2543,
      "zamiast": 2544,
      "wiecz": 2545,
      "jąć": 2546,
      "krótce": 2547,
      "zni": 2548,
      "zapła": 2549,
      "natomiast": 2550,
      "rał": 2551,
      "ńska": 2552,
      "zbu": 2553,
      "lenia": 2554,
      "skiemu": 2555,
      "lone": 2556,
      "ciągu": 2557,
      "Pio": 2558,
      "znalazł": 2559,
      "dniu": 2560,
      "mąd": 2561,
      "zwo": 2562,
      "podo": 2563,
      "kwia": 2564,
      "pry": 2565,
      "ukła": 2566,
      "jakiej": 2567,
      "stop": 2568,
      "prędzej": 2569,
      "Du": 2570,
      "swą": 2571,
      "dami": 2572,
      "Woj": 2573,
      "spie": 2574,
      "poważ": 2575,
      "rąk": 2576,
      "siła": 2577,
      "wielką": 2578,
      "cztery": 2579,
      "stwie": 2580,
      "takiej": 2581,
      "rozpo": 2582,
      "stron": 2583,
      "funk": 2584,
      "wciąż": 2585,
      "Polski": 2586,
      "pewno": 2587,
      "robić": 2588,
      "widocznie": 2589,
      "dzili": 2590,
      "mienie": 2591,
      "Koza": 2592,
      "miejsc": 2593,
      "----": 2594,
      "tłuma": 2595,
      "mią": 2596,
      "spod": 2597,
      "mek": 2598,
      "naszych": 2599,
      "tan": 2600,
      "sprawiedli": 2601,
      "20": 2602,
      "zgu": 2603,
      "gan": 2604,
      "głoś": 2605,
      "niony": 2606,
      "Tylko": 2607,
      "spokojnie": 2608,
      "interes": 2609,
      "gwia": 2610,
      "zba": 2611,
      "myślę": 2612,
      "nicę": 2613,
      "słał": 2614,
      "wprawdzie": 2615,
      "nowy": 2616,
      "kowie": 2617,
      "pacho": 2618,
      "panem": 2619,
      "stej": 2620,
      "ME": 2621,
      "nemu": 2622,
      "wyraź": 2623,
      "lami": 2624,
      "Jeszcze": 2625,
      "imię": 2626,
      "oce": 2627,
      "san": 2628,
      "równa": 2629,
      "brak": 2630,
      "czuł": 2631,
      "brz": 2632,
      "kół": 2633,
      "spół": 2634,
      "częście": 2635,
      "krzyw": 2636,
      "mił": 2637,
      "ksiądz": 2638,
      "prowadzić": 2639,
      "tre": 2640,
      "mogło": 2641,
      "jakoby": 2642,
      "szlachci": 2643,
      "jda": 2644,
      "doświad": 2645,
      "łatwo": 2646,
      "wydo": 2647,
      "przede": 2648,
      "kieru": 2649,
      "pisał": 2650,
      "loka": 2651,
      "gniew": 2652,
      "STO": 2653,
      "”,": 2654,
      "zaba": 2655,
      "skąd": 2656,
      "dobro": 2657,
      "pierwszej": 2658,
      "Chrystu": 2659,
      "Rzy": 2660,
      "gię": 2661,
      "han": 2662,
      "poza": 2663,
      "set": 2664,
      "żołnierz": 2665,
      "specja": 2666,
      "prędko": 2667,
      "Izabela": 2668,
      "ura": 2669,
      "jakiego": 2670,
      "tygo": 2671,
      "przerwał": 2672,
      "mem": 2673,
      "pej": 2674,
      "trwo": 2675,
      "mował": 2676,
      "swe": 2677,
      "czkę": 2678,
      "szczą": 2679,
      "pochy": 2680,
      "kor": 2681,
      "Fran": 2682,
      "wiła": 2683,
      "tobli": 2684,
      "mego": 2685,
      "postanowi": 2686,
      "równo": 2687,
      "Su": 2688,
      "groz": 2689,
      "lna": 2690,
      "porząd": 2691,
      "będziesz": 2692,
      "pewnie": 2693,
      "poł": 2694,
      "waszej": 2695,
      "mówiła": 2696,
      "sława": 2697,
      "zostanie": 2698,
      "kobiety": 2699,
      "stąpił": 2700,
      "ostro": 2701,
      "biały": 2702,
      "seł": 2703,
      "nicja": 2704,
      "spojrzał": 2705,
      "źle": 2706,
      "chcą": 2707,
      "doku": 2708,
      "inny": 2709,
      "30": 2710,
      "chmu": 2711,
      "krzyk": 2712,
      "gen": 2713,
      "znak": 2714,
      "szar": 2715,
      "panowie": 2716,
      "słowo": 2717,
      "wód": 2718,
      "Wszystko": 2719,
      "hy": 2720,
      "wsty": 2721,
      "poszedł": 2722,
      "gorze": 2723,
      "stytu": 2724,
      "rob": 2725,
      "żone": 2726,
      "sercu": 2727,
      "różnych": 2728,
      "faraon": 2729,
      "nice": 2730,
      "kolo": 2731,
      "Petroniusz": 2732,
      "wnet": 2733,
      "zada": 2734,
      "wojen": 2735,
      "FELE": 2736,
      "ocho": 2737,
      "pory": 2738,
      "zaczyna": 2739,
      "leka": 2740,
      "bel": 2741,
      "FISTO": 2742,
      "MEFISTO": 2743,
      "FELES": 2744,
      "MEFISTOFELES": 2745,
      "sali": 2746,
      "ręko": 2747,
      "powa": 2748,
      "dziła": 2749,
      "Rozdział": 2750,
      "Oj": 2751,
      "tkiem": 2752,
      "cili": 2753,
      "muzy": 2754,
      "Or": 2755,
      "Pre": 2756,
      "Są": 2757,
      "dzier": 2758,
      "Ach": 2759,
      "Ho": 2760,
      "sre": 2761,
      "niezmie": 2762,
      "obli": 2763,
      "przyszedł": 2764,
      "całkiem": 2765,
      "pieniądze": 2766,
      "wolno": 2767,
      "ld": 2768,
      "głosy": 2769,
      "siaj": 2770,
      "próż": 2771,
      "nieu": 2772,
      "skoczył": 2773,
      "pocie": 2774,
      "boż": 2775,
      "arty": 2776,
      "mówiąc": 2777,
      "chodziło": 2778,
      "przyjdzie": 2779,
      "Dobrze": 2780,
      "ponieważ": 2781,
      "zac": 2782,
      "ciół": 2783,
      "pytała": 2784,
      "zostały": 2785,
      "trzeć": 2786,
      "tychczas": 2787,
      "niosła": 2788,
      "padła": 2789,
      "sny": 2790,
      "odwie": 2791,
      "moją": 2792,
      "bur": 2793,
      "blisko": 2794,
      "Każ": 2795,
      "Radziwił": 2796,
      "owały": 2797,
      "liście": 2798,
      "przera": 2799,
      "ogra": 2800,
      "wrócić": 2801,
      "książ": 2802,
      "rozumiał": 2803,
      "dny": 2804,
      "lubi": 2805,
      "art": 2806,
      "Jakoż": 2807,
      "IE": 2808,
      "posła": 2809,
      "cent": 2810,
      "niami": 2811,
      "piecho": 2812,
      "skę": 2813,
      "wielkim": 2814,
      "dłuż": 2815,
      "12": 2816,
      "Eu": 2817,
      "Wtem": 2818,
      "byle": 2819,
      "miasto": 2820,
      "pta": 2821,
      "szto": 2822,
      "mier": 2823,
      "powtarza": 2824,
      "gnął": 2825,
      "us": 2826,
      "Przecie": 2827,
      "zamku": 2828,
      "hetman": 2829,
      "nazwi": 2830,
      "poczy": 2831,
      "przynajmniej": 2832,
      "stronie": 2833,
      "ogóle": 2834,
      "sną": 2835,
      "twój": 2836,
      "zrobić": 2837,
      "gre": 2838,
      "opa": 2839,
      "opowiada": 2840,
      "źni": 2841,
      "żyli": 2842,
      "Wokulskiego": 2843,
      "przyjaciół": 2844,
      "Trzeba": 2845,
      "chała": 2846,
      "żyw": 2847,
      "rozkaz": 2848,
      "ńczy": 2849,
      "naszej": 2850,
      "zakoń": 2851,
      "tale": 2852,
      "nosił": 2853,
      "mieniem": 2854,
      "końca": 2855,
      "SA": 2856,
      "min": 2857,
      "nor": 2858,
      "Mam": 2859,
      "odzy": 2860,
      "twór": 2861,
      "rodza": 2862,
      "reali": 2863,
      "bij": 2864,
      "żywo": 2865,
      "myśla": 2866,
      "chcąc": 2867,
      "latach": 2868,
      "sprawy": 2869,
      "Ga": 2870,
      "kcji": 2871,
      "wano": 2872,
      "rum": 2873,
      "jo": 2874,
      "zły": 2875,
      "Pani": 2876,
      "kiedyś": 2877,
      "świątobli": 2878,
      "wnętrz": 2879,
      "Jednak": 2880,
      "opi": 2881,
      "stara": 2882,
      "mogły": 2883,
      "trudno": 2884,
      "nieba": 2885,
      "stwem": 2886,
      "cicho": 2887,
      "broni": 2888,
      "mając": 2889,
      "przyczy": 2890,
      "Kra": 2891,
      "kawale": 2892,
      "żela": 2893,
      "mieście": 2894,
      "owicz": 2895,
      "nione": 2896,
      "suk": 2897,
      "rycer": 2898,
      "ministra": 2899,
      "Zo": 2900,
      "ruch": 2901,
      "sługi": 2902,
      "wyzna": 2903,
      "prób": 2904,
      "FA": 2905,
      "ozna": 2906,
      "każe": 2907,
      "tyw": 2908,
      "przestrze": 2909,
      "bada": 2910,
      "bom": 2911,
      "innym": 2912,
      "prowadzo": 2913,
      "Krzyża": 2914,
      "łała": 2915,
      "chle": 2916,
      "moich": 2917,
      "sro": 2918,
      "sti": 2919,
      "pieniędzy": 2920,
      "oby": 2921,
      "mówią": 2922,
      ".,": 2923,
      "meryka": 2924,
      "którymi": 2925,
      "wszedł": 2926,
      "rt": 2927,
      "tnych": 2928,
      "ńcy": 2929,
      "zapom": 2930,
      "rzyła": 2931,
      "któw": 2932,
      "Komi": 2933,
      "pytanie": 2934,
      "Sły": 2935,
      "źnie": 2936,
      "pocz": 2937,
      "stanął": 2938,
      "wcześniej": 2939,
      "bru": 2940,
      "gwał": 2941,
      "lenie": 2942,
      "ton": 2943,
      "znacznie": 2944,
      "syj": 2945,
      "istotnie": 2946,
      ".”": 2947,
      "fra": 2948,
      "wodę": 2949,
      "staje": 2950,
      "pełni": 2951,
      "powro": 2952,
      "osie": 2953,
      "wtrą": 2954,
      "niena": 2955,
      "rabia": 2956,
      "sej": 2957,
      "Jezu": 2958,
      "rzekłszy": 2959,
      "prowadza": 2960,
      "mentu": 2961,
      "nieszczę": 2962,
      "jęcia": 2963,
      "okrzy": 2964,
      "straszli": 2965,
      "Kali": 2966,
      "powinien": 2967,
      "zdraj": 2968,
      "zwyczaj": 2969,
      "Kry": 2970,
      "waj": 2971,
      "jakich": 2972,
      "chwycił": 2973,
      "pać": 2974,
      "wierz": 2975,
      "bierze": 2976,
      "chaj": 2977,
      "długie": 2978,
      "Proszę": 2979,
      "istnie": 2980,
      "Bie": 2981,
      "bądź": 2982,
      "ck": 2983,
      "psy": 2984,
      "mii": 2985,
      "Nagle": 2986,
      "Basia": 2987,
      "ryta": 2988,
      "cen": 2989,
      "nóg": 2990,
      "kuje": 2991,
      "szyć": 2992,
      "nięte": 2993,
      "znajdzie": 2994,
      "godziny": 2995,
      "nkę": 2996,
      "szer": 2997,
      "ręki": 2998,
      "sunął": 2999,
      "bliż": 3000,
      "cierpli": 3001,
      "dziesięć": 3002,
      "niezmier": 3003,
      "nowych": 3004,
      "uzna": 3005,
      "niedo": 3006,
      "zasta": 3007,
      "wienia": 3008,
      "rucho": 3009,
      "stym": 3010,
      "zdrowie": 3011,
      "fran": 3012,
      "ocze": 3013,
      "tz": 3014,
      "wład": 3015,
      "III": 3016,
      "samej": 3017,
      "zga": 3018,
      "nadz": 3019,
      "naszego": 3020,
      "chowa": 3021,
      "racji": 3022,
      "wienie": 3023,
      "dobra": 3024,
      "gier": 3025,
      "kazać": 3026,
      "swym": 3027,
      "dzisiaj": 3028,
      "ręka": 3029,
      "syna": 3030,
      "Tutmo": 3031,
      "Czarniec": 3032,
      "Tutmozi": 3033,
      "śmiał": 3034,
      "polu": 3035,
      "rzec": 3036,
      "laty": 3037,
      "niejszych": 3038,
      "sur": 3039,
      "ustawy": 3040,
      "glądał": 3041,
      "kana": 3042,
      "widząc": 3043,
      "więzie": 3044,
      "panny": 3045,
      "proc": 3046,
      "okrę": 3047,
      "tęsk": 3048,
      "Ła": 3049,
      "posiada": 3050,
      "nica": 3051,
      "spokój": 3052,
      "skle": 3053,
      "mer": 3054,
      "słysz": 3055,
      "Myś": 3056,
      "pów": 3057,
      "zmę": 3058,
      "niby": 3059,
      "miest": 3060,
      "muszę": 3061,
      "uczynił": 3062,
      "powtórzył": 3063,
      "dowi": 3064,
      "zów": 3065,
      "związa": 3066,
      "tali": 3067,
      "wysta": 3068,
      "siedział": 3069,
      "byłem": 3070,
      "czonych": 3071,
      "gdzieś": 3072,
      "np": 3073,
      "niki": 3074,
      "wają": 3075,
      "wykona": 3076,
      "regu": 3077,
      "wen": 3078,
      "ogie": 3079,
      "dotychczas": 3080,
      "tobą": 3081,
      "najwyż": 3082,
      "słysze": 3083,
      "żołnierze": 3084,
      "Stra": 3085,
      "Sej": 3086,
      "bów": 3087,
      "fał": 3088,
      "osoby": 3089,
      "prywa": 3090,
      "rom": 3091,
      "wiedzieć": 3092,
      "charak": 3093,
      "najbardziej": 3094,
      "pomocy": 3095,
      "sprzeda": 3096,
      "czwar": 3097,
      "czyło": 3098,
      "duch": 3099,
      "osa": 3100,
      "ponu": 3101,
      "nij": 3102,
      "prasza": 3103,
      "Kazi": 3104,
      "pierwszym": 3105,
      "wskiego": 3106,
      "nastu": 3107,
      "myśleć": 3108,
      "Ket": 3109,
      "nus": 3110,
      "chciała": 3111,
      "mała": 3112,
      "wien": 3113,
      "odkry": 3114,
      "rubli": 3115,
      "żyje": 3116,
      "uczyni": 3117,
      "szepnął": 3118,
      "waszmości": 3119,
      "posa": 3120,
      "zakła": 3121,
      "panią": 3122,
      "bogi": 3123,
      "Poli": 3124,
      "chłopa": 3125,
      "fun": 3126,
      "podróż": 3127,
      "Nawet": 3128,
      "wojna": 3129,
      "włosy": 3130,
      "środku": 3131,
      "częściej": 3132,
      "Ketlin": 3133,
      "ckim": 3134,
      "rzo": 3135,
      "dzał": 3136,
      "cel": 3137,
      "tuż": 3138,
      "oddział": 3139,
      "celu": 3140,
      "zostało": 3141,
      "większo": 3142,
      "przygotowa": 3143,
      "Któ": 3144,
      "niewia": 3145,
      "wich": 3146,
      "żal": 3147,
      "księży": 3148,
      "policja": 3149,
      "har": 3150,
      "chód": 3151,
      "ryj": 3152,
      "bogów": 3153,
      "ciąga": 3154,
      "wolna": 3155,
      "kroków": 3156,
      "kapłan": 3157,
      "modli": 3158,
      "żół": 3159,
      "ban": 3160,
      "rozum": 3161,
      "żaden": 3162,
      "przedsię": 3163,
      "skoro": 3164,
      "drob": 3165,
      "kroć": 3166,
      "pola": 3167,
      "wizy": 3168,
      "wymi": 3169,
      "dzian": 3170,
      "Była": 3171,
      "wszę": 3172,
      "wkrótce": 3173,
      "tea": 3174,
      "dziel": 3175,
      "ody": 3176,
      "piec": 3177,
      "pracu": 3178,
      "wielkiego": 3179,
      "Dlaczego": 3180,
      "ach": 3181,
      "jach": 3182,
      "przewi": 3183,
      "wese": 3184,
      "trak": 3185,
      "idą": 3186,
      "słońce": 3187,
      "szczu": 3188,
      "waść": 3189,
      "wyczaj": 3190,
      "szek": 3191,
      "bara": 3192,
      "Dziś": 3193,
      "Warszawie": 3194,
      "chcieli": 3195,
      "stw": 3196,
      "dosko": 3197,
      "dopodob": 3198,
      "wysła": 3199,
      "rusza": 3200,
      "bole": 3201,
      "zek": 3202,
      "szukać": 3203,
      "Sto": 3204,
      "rać": 3205,
      "owska": 3206,
      "jazd": 3207,
      "pójdzie": 3208,
      "licy": 3209,
      "zapo": 3210,
      "leni": 3211,
      "wala": 3212,
      "rój": 3213,
      "twoje": 3214,
      "znaleźć": 3215,
      "wsi": 3216,
      "wstrzy": 3217,
      "rzała": 3218,
      "nauczy": 3219,
      "przezna": 3220,
      "regi": 3221,
      "wojsko": 3222,
      "ofia": 3223,
      "Chmielnicki": 3224,
      "OR": 3225,
      "gosła": 3226,
      "kony": 3227,
      "ciało": 3228,
      "bili": 3229,
      "jeste": 3230,
      "wielka": 3231,
      "Rzecz": 3232,
      "nkiem": 3233,
      "odu": 3234,
      "pisy": 3235,
      "uzy": 3236,
      "zwróci": 3237,
      "pogo": 3238,
      "połą": 3239,
      "kot": 3240,
      "stych": 3241,
      "drugą": 3242,
      "NA": 3243,
      "utwo": 3244,
      "zje": 3245,
      "ledwie": 3246,
      "spotk": 3247,
      "UST": 3248,
      "dry": 3249,
      "oświad": 3250,
      "kasz": 3251,
      "wierzy": 3252,
      "możesz": 3253,
      "chodu": 3254,
      "ofice": 3255,
      "dziesięciu": 3256,
      "16": 3257,
      "pija": 3258,
      "uwagę": 3259,
      "ogień": 3260,
      "Wówczas": 3261,
      "kościo": 3262,
      "Bogusław": 3263,
      "hor": 3264,
      "wrze": 3265,
      "niemal": 3266,
      "czemu": 3267,
      "bor": 3268,
      "dent": 3269,
      "Było": 3270,
      "komna": 3271,
      "ofiar": 3272,
      "Czę": 3273,
      "poży": 3274,
      "marszał": 3275,
      "FAUST": 3276,
      "tną": 3277,
      "byłby": 3278,
      "drzewa": 3279,
      "eg": 3280,
      "tytu": 3281,
      "cenia": 3282,
      "mocy": 3283,
      "innymi": 3284,
      "ktora": 3285,
      "rządu": 3286,
      "miłosier": 3287,
      "wojewódz": 3288,
      "zrobił": 3289,
      "nienie": 3290,
      "kierow": 3291,
      "owymi": 3292,
      "onu": 3293,
      "któremu": 3294,
      "TA": 3295,
      "ota": 3296,
      "znik": 3297,
      "nikogo": 3298,
      "ram": 3299,
      "wając": 3300,
      "stole": 3301,
      "inter": 3302,
      "wielkiej": 3303,
      "Zresztą": 3304,
      "fry": 3305,
      "wprost": 3306,
      "napa": 3307,
      "papie": 3308,
      "dawna": 3309,
      "godzin": 3310,
      "Piotr": 3311,
      "tków": 3312,
      "reli": 3313,
      "choro": 3314,
      "Stani": 3315,
      "17": 3316,
      "ide": 3317,
      "ozwał": 3318,
      "wane": 3319,
      "trzeci": 3320,
      "obaj": 3321,
      "stąpić": 3322,
      "Dziękuję": 3323,
      "wst": 3324,
      "czes": 3325,
      "lum": 3326,
      "demo": 3327,
      "Mini": 3328,
      "mocno": 3329,
      "oficer": 3330,
      "narchi": 3331,
      "Kazimie": 3332,
      "lka": 3333,
      "spad": 3334,
      "ufa": 3335,
      "pomyśl": 3336,
      "owało": 3337,
      "len": 3338,
      "kobieta": 3339,
      "jakaś": 3340,
      "50": 3341,
      "stwier": 3342,
      "niała": 3343,
      "temat": 3344,
      "wyżej": 3345,
      "strach": 3346,
      "księż": 3347,
      "ojczyz": 3348,
      "zdoby": 3349,
      "jedynie": 3350,
      "patrząc": 3351,
      "at": 3352,
      "niczego": 3353,
      "wystar": 3354,
      "wolę": 3355,
      "stali": 3356,
      "męża": 3357,
      "kru": 3358,
      "nkach": 3359,
      "wście": 3360,
      "niepoko": 3361,
      "leżą": 3362,
      "wyro": 3363,
      "trzymy": 3364,
      "uroczy": 3365,
      "jednocześnie": 3366,
      "wybor": 3367,
      "czność": 3368,
      "poczu": 3369,
      "baron": 3370,
      "strzela": 3371,
      "Babi": 3372,
      "dzięki": 3373,
      "łka": 3374,
      "trzydzie": 3375,
      "wiony": 3376,
      "polskich": 3377,
      "MA": 3378,
      "błą": 3379,
      "trzą": 3380,
      "posą": 3381,
      "gotów": 3382,
      "kimi": 3383,
      "ciele": 3384,
      "słychać": 3385,
      "drugiego": 3386,
      "prezyden": 3387,
      "rękoma": 3388,
      "obywa": 3389,
      "nin": 3390,
      "pach": 3391,
      "noszą": 3392,
      "duży": 3393,
      "Chy": 3394,
      "Gre": 3395,
      "łowa": 3396,
      "naszym": 3397,
      "dysku": 3398,
      "drugim": 3399,
      "Choć": 3400,
      "izby": 3401,
      "nieraz": 3402,
      "czeń": 3403,
      "wojnę": 3404,
      "dłużej": 3405,
      "świątyni": 3406,
      "kała": 3407,
      "czli": 3408,
      "czności": 3409,
      "koro": 3410,
      "wina": 3411,
      "pomocą": 3412,
      "dował": 3413,
      "kować": 3414,
      "towi": 3415,
      "szpita": 3416,
      "niczym": 3417,
      "zauwa": 3418,
      "zostać": 3419,
      "ener": 3420,
      "spę": 3421,
      "miły": 3422,
      "wieści": 3423,
      "prakty": 3424,
      "zbroj": 3425,
      "włó": 3426,
      "nara": 3427,
      "stety": 3428,
      "Dopiero": 3429,
      "finans": 3430,
      "Lon": 3431,
      "wpadł": 3432,
      "mawia": 3433,
      "sześć": 3434,
      "powiedziała": 3435,
      "dzony": 3436,
      "Musi": 3437,
      "Wszyscy": 3438,
      "głośno": 3439,
      "niebezpiecze": 3440,
      "pojedy": 3441,
      "mówili": 3442,
      "dźmi": 3443,
      "brzegu": 3444,
      "lność": 3445,
      "mień": 3446,
      "bami": 3447,
      "proś": 3448,
      "arcy": 3449,
      "budy": 3450,
      "przedstawi": 3451,
      "Jurand": 3452,
      "zowa": 3453,
      "stąd": 3454,
      "stego": 3455,
      "zależ": 3456,
      "krwa": 3457,
      "Osta": 3458,
      "Wą": 3459,
      "fan": 3460,
      "leż": 3461,
      "dzieścia": 3462,
      "przypa": 3463,
      "prawy": 3464,
      "Aż": 3465,
      "Ob": 3466,
      "cju": 3467,
      "kowski": 3468,
      "nó": 3469,
      "łzy": 3470,
      "źli": 3471,
      "miesza": 3472,
      "przypomina": 3473,
      "dii": 3474,
      "nowego": 3475,
      "pobli": 3476,
      "pas": 3477,
      "rej": 3478,
      "przywi": 3479,
      "skać": 3480,
      "czona": 3481,
      "dzeniu": 3482,
      "Zbyszka": 3483,
      "pisać": 3484,
      "minister": 3485,
      "materi": 3486,
      "Jo": 3487,
      "gla": 3488,
      "byśmy": 3489,
      "wykorzy": 3490,
      "dają": 3491,
      "matka": 3492,
      "przyzna": 3493,
      "ludźmi": 3494,
      "jakoś": 3495,
      "kłopo": 3496,
      "żadnej": 3497,
      "dba": 3498,
      "wany": 3499,
      "wyciąg": 3500,
      "wedle": 3501,
      "Justy": 3502,
      "sprawę": 3503,
      "Fenicja": 3504,
      "mować": 3505,
      "pem": 3506,
      "ńską": 3507,
      "dokona": 3508,
      "cenie": 3509,
      "gii": 3510,
      "mąż": 3511,
      "Warszawy": 3512,
      "spostrzegł": 3513,
      "odle": 3514,
      "odpowiada": 3515,
      "bieg": 3516,
      "Nad": 3517,
      "rycerza": 3518,
      "cjona": 3519,
      "Sze": 3520,
      "cno": 3521,
      "powszech": 3522,
      "zawi": 3523,
      "widzieć": 3524,
      "przeszło": 3525,
      "muszą": 3526,
      "syć": 3527,
      "złotych": 3528,
      "sprawa": 3529,
      "kapłani": 3530,
      "zaledwie": 3531,
      "Bra": 3532,
      "Igna": 3533,
      "Oleń": 3534,
      "namiest": 3535,
      "niesi": 3536,
      "stki": 3537,
      "wice": 3538,
      "dzież": 3539,
      "syła": 3540,
      "drzwia": 3541,
      "XV": 3542,
      "krą": 3543,
      "ostrze": 3544,
      "rki": 3545,
      "rop": 3546,
      "tuje": 3547,
      "los": 3548,
      "byłoby": 3549,
      "słuchał": 3550,
      "Chilo": 3551,
      "wielkich": 3552,
      "słysza": 3553,
      "oczywiście": 3554,
      "słońca": 3555,
      "krotnie": 3556,
      "Wiem": 3557,
      "rozmawia": 3558,
      "Wreszcie": 3559,
      "ata": 3560,
      "die": 3561,
      "dyre": 3562,
      "czekać": 3563,
      "przyci": 3564,
      "skło": 3565,
      "nicą": 3566,
      "Będzie": 3567,
      "potwier": 3568,
      "lon": 3569,
      "czący": 3570,
      "droga": 3571,
      "wspani": 3572,
      "żadnych": 3573,
      "obowiąz": 3574,
      "nadzwyczaj": 3575,
      "Dy": 3576,
      "Szu": 3577,
      "lniej": 3578,
      "szki": 3579,
      "roli": 3580,
      "czyta": 3581,
      "świado": 3582,
      "głębi": 3583,
      "Bardzo": 3584,
      "nny": 3585,
      "oskar": 3586,
      "czyły": 3587,
      "czele": 3588,
      "szenie": 3589,
      "owości": 3590,
      "kobiet": 3591,
      "zwierzę": 3592,
      "Ur": 3593,
      "strza": 3594,
      "zadowo": 3595,
      "miny": 3596,
      "wyra": 3597,
      "wyraz": 3598,
      "wygląda": 3599,
      "prawdopodob": 3600,
      "rować": 3601,
      "okreś": 3602,
      "Ona": 3603,
      "RO": 3604,
      "ubra": 3605,
      "upły": 3606,
      "uważ": 3607,
      "rzeki": 3608,
      "tera": 3609,
      "pewien": 3610,
      "skry": 3611,
      "proble": 3612,
      "siach": 3613,
      "dwadzieścia": 3614,
      "skarb": 3615,
      "Jestem": 3616,
      "gospoda": 3617,
      "hand": 3618,
      "poe": 3619,
      "bok": 3620,
      "bisku": 3621,
      "twarzą": 3622,
      "ulicy": 3623,
      "zdawało": 3624,
      "zatem": 3625,
      "haj": 3626,
      "Dlatego": 3627,
      "zaczęła": 3628,
      "Prawda": 3629,
      "przewodni": 3630,
      "14": 3631,
      "Zie": 3632,
      "Zna": 3633,
      "dyna": 3634,
      "cjach": 3635,
      "Jakże": 3636,
      "Hele": 3637,
      "nci": 3638,
      "rzeź": 3639,
      "łaska": 3640,
      "przysię": 3641,
      "znam": 3642,
      "Pamię": 3643,
      "krai": 3644,
      "Kmicica": 3645,
      "kazuje": 3646,
      "francu": 3647,
      "oz": 3648,
      "opuści": 3649,
      "swa": 3650,
      "łta": 3651,
      "podzie": 3652,
      "czami": 3653,
      "wiatr": 3654,
      "całego": 3655,
      "pytać": 3656,
      "poznał": 3657,
      "szlachta": 3658,
      "chorągwi": 3659,
      "wątpli": 3660,
      "wza": 3661,
      "łow": 3662,
      "łowi": 3663,
      "baro": 3664,
      "bija": 3665,
      "Sapie": 3666,
      "zbliża": 3667,
      "kniazi": 3668,
      "psu": 3669,
      "smo": 3670,
      "wną": 3671,
      "przyby": 3672,
      "Zali": 3673,
      "każdej": 3674,
      "dniach": 3675,
      "Łu": 3676,
      "nade": 3677,
      "niemu": 3678,
      "czter": 3679,
      "lika": 3680,
      "zabra": 3681,
      "ścić": 3682,
      "Następ": 3683,
      "Oczy": 3684,
      "jów": 3685,
      "snu": 3686,
      "wrza": 3687,
      "wyją": 3688,
      "Alek": 3689,
      "dzać": 3690,
      "uczynić": 3691,
      "faraona": 3692,
      "zał": 3693,
      "kali": 3694,
      "patrzeć": 3695,
      "anty": 3696,
      "Cha": 3697,
      "będziemy": 3698,
      "szony": 3699,
      "kilkanaście": 3700,
      "potrzebu": 3701,
      "błogosła": 3702,
      "tło": 3703,
      "urzą": 3704,
      "rana": 3705,
      "nera": 3706,
      "puszcz": 3707,
      "wrót": 3708,
      "Szcze": 3709,
      "tysiące": 3710,
      "łóż": 3711,
      "owu": 3712,
      "leś": 3713,
      "wołał": 3714,
      "wzgó": 3715,
      "Tade": 3716,
      "miałem": 3717,
      "powsta": 3718,
      "cyjne": 3719,
      "Zbysz": 3720,
      "ciężko": 3721,
      "Żeby": 3722,
      "radości": 3723,
      "państw": 3724,
      "ctwa": 3725,
      "wki": 3726,
      "zała": 3727,
      "natura": 3728,
      "żąda": 3729,
      "podobne": 3730,
      "odezwał": 3731,
      "Mef": 3732,
      "kształt": 3733,
      "starego": 3734,
      "13": 3735,
      "oca": 3736,
      "poseł": 3737,
      "strzał": 3738,
      "dzisz": 3739,
      "mać": 3740,
      "cześć": 3741,
      "pracę": 3742,
      "ludziom": 3743,
      "własną": 3744,
      "hra": 3745,
      "rano": 3746,
      "kacji": 3747,
      "lako": 3748,
      "lada": 3749,
      "wałem": 3750,
      "okrop": 3751,
      "zielo": 3752,
      "poznać": 3753,
      "stępuje": 3754,
      "uczest": 3755,
      "tli": 3756,
      "uszy": 3757,
      "umar": 3758,
      "zbo": 3759,
      "nazywa": 3760,
      "niejsza": 3761,
      "pamięta": 3762,
      "Daj": 3763,
      "twiej": 3764,
      "nadzieję": 3765,
      "Pow": 3766,
      "twy": 3767,
      "cztere": 3768,
      "pomiędzy": 3769,
      "rośli": 3770,
      "wyłą": 3771,
      "czyzna": 3772,
      "biega": 3773,
      "duszę": 3774,
      "met": 3775,
      "pun": 3776,
      "okry": 3777,
      "Wito": 3778,
      "śred": 3779,
      "wtrącił": 3780,
      "ameryka": 3781,
      "złe": 3782,
      "wypa": 3783,
      "ciej": 3784,
      "czeć": 3785,
      "Tutmozis": 3786,
      "Sza": 3787,
      "ule": 3788,
      "odwa": 3789,
      "szenia": 3790,
      "Jana": 3791,
      "zuje": 3792,
      "kapłanów": 3793,
      "ludzkie": 3794,
      "jakąś": 3795,
      "nieprzyjaciel": 3796,
      "Bohun": 3797,
      "ostroż": 3798,
      "SL": 3799,
      "zra": 3800,
      "pog": 3801,
      "zarówno": 3802,
      "cony": 3803,
      "pragnie": 3804,
      "oglą": 3805,
      "nięty": 3806,
      "młod": 3807,
      "rzeczywi": 3808,
      "tii": 3809,
      "Fi": 3810,
      "poga": 3811,
      "nicz": 3812,
      "mis": 3813,
      "niać": 3814,
      "dusza": 3815,
      "czoło": 3816,
      "różne": 3817,
      "ostatni": 3818,
      "Rzecki": 3819,
      "wysoko": 3820,
      "wołać": 3821,
      "Oni": 3822,
      "wymaga": 3823,
      "morze": 3824,
      "panów": 3825,
      "stycz": 3826,
      "Char": 3827,
      "wojow": 3828,
      "Mille": 3829,
      "wojewoda": 3830,
      "Bez": 3831,
      "en": 3832,
      "wielko": 3833,
      "wschod": 3834,
      "rozmai": 3835,
      "Szwedów": 3836,
      "sch": 3837,
      "wieść": 3838,
      "jednakże": 3839,
      "samą": 3840,
      "ściany": 3841,
      "Aleksan": 3842,
      "sor": 3843,
      "tności": 3844,
      "rozwi": 3845,
      "ope": 3846,
      "rodu": 3847,
      "przypom": 3848,
      "prag": 3849,
      "duże": 3850,
      "słuchać": 3851,
      "wóz": 3852,
      "dziewczyna": 3853,
      "dwudzie": 3854,
      "SZ": 3855,
      "ctwo": 3856,
      "zrozumie": 3857,
      "zdecy": 3858,
      "sznie": 3859,
      "poświę": 3860,
      "gon": 3861,
      "cesa": 3862,
      "siej": 3863,
      "powietrze": 3864,
      "budowa": 3865,
      "wszystkiego": 3866,
      "niom": 3867,
      "Tego": 3868,
      "własne": 3869,
      "światło": 3870,
      "żek": 3871,
      "jazdy": 3872,
      "siłą": 3873,
      "puszczo": 3874,
      "powiedz": 3875,
      "każdego": 3876,
      "dowód": 3877,
      "widziałem": 3878,
      "dostać": 3879,
      "rozmowy": 3880,
      "Zyg": 3881,
      "Par": 3882,
      "lnik": 3883,
      "spó": 3884,
      "kono": 3885,
      "działy": 3886,
      "wek": 3887,
      "rób": 3888,
      "ręcz": 3889,
      "skrę": 3890,
      "głem": 3891,
      "proku": 3892,
      "któren": 3893,
      "ziemia": 3894,
      "Tele": 3895,
      "broń": 3896,
      "namio": 3897,
      "Pentu": 3898,
      "oczeki": 3899,
      "bóg": 3900,
      "kwest": 3901,
      "państwo": 3902,
      "wyr": 3903,
      "przyjechał": 3904,
      "mentów": 3905,
      "Pary": 3906,
      "pewne": 3907,
      "odpowiedziała": 3908,
      "szlachet": 3909,
      "anarchi": 3910,
      "cało": 3911,
      "kwie": 3912,
      "oli": 3913,
      "tko": 3914,
      "zakon": 3915,
      "zachod": 3916,
      "zatrzyma": 3917,
      "konu": 3918,
      "ciwszy": 3919,
      "bach": 3920,
      "cof": 3921,
      "cone": 3922,
      "prote": 3923,
      "gdyś": 3924,
      "mówisz": 3925,
      "ściach": 3926,
      "własnej": 3927,
      "milczeniu": 3928,
      "zbliżył": 3929,
      "wziąć": 3930,
      "błyska": 3931,
      "sprzę": 3932,
      "ograni": 3933,
      "Chyba": 3934,
      "tora": 3935,
      "cep": 3936,
      "party": 3937,
      "służby": 3938,
      "ab": 3939,
      "bał": 3940,
      "dną": 3941,
      "umiał": 3942,
      "niespo": 3943,
      "zakrzyknął": 3944,
      "lau": 3945,
      "weź": 3946,
      "roze": 3947,
      "inwe": 3948,
      "!!": 3949,
      "Rzę": 3950,
      "jski": 3951,
      "Łę": 3952,
      "śro": 3953,
      "niezna": 3954,
      "popraw": 3955,
      "szlachty": 3956,
      "mężczyz": 3957,
      "Albo": 3958,
      "szlachcic": 3959,
      "Mię": 3960,
      "gowie": 3961,
      "jał": 3962,
      "opła": 3963,
      "rka": 3964,
      "system": 3965,
      "prezes": 3966,
      "drzew": 3967,
      "Nikt": 3968,
      "budże": 3969,
      "wesoło": 3970,
      "Wtedy": 3971,
      "dły": 3972,
      "podda": 3973,
      "sym": 3974,
      "ognia": 3975,
      "part": 3976,
      "chodziły": 3977,
      "zawołała": 3978,
      "cyjnych": 3979,
      "uderzył": 3980,
      "zde": 3981,
      "rzyły": 3982,
      "łach": 3983,
      "oddał": 3984,
      "aniżeli": 3985,
      "daleka": 3986,
      "rozumiem": 3987,
      "Ber": 3988,
      "Spy": 3989,
      "lno": 3990,
      "uch": 3991,
      "czci": 3992,
      "posto": 3993,
      "rzyło": 3994,
      "tecznie": 3995,
      "według": 3996,
      "rozwiąza": 3997,
      "zebra": 3998,
      "czasów": 3999,
      "słow": 4000,
      "mógłby": 4001,
      "śmiertel": 4002,
      "dotyczą": 4003,
      "XI": 4004,
      "dka": 4005,
      "os": 4006,
      "okiem": 4007,
      "ochro": 4008,
      "plu": 4009,
      "nasza": 4010,
      "kawał": 4011,
      "wino": 4012,
      "prawia": 4013,
      "krzyża": 4014,
      "ostatnich": 4015,
      "grozi": 4016,
      "Ketling": 4017,
      "gnąć": 4018,
      "tnym": 4019,
      "umy": 4020,
      "roni": 4021,
      "prosił": 4022,
      "możemy": 4023,
      "wojnie": 4024,
      "hań": 4025,
      "polskiego": 4026,
      "zapewne": 4027,
      "Nero": 4028,
      "wieczorem": 4029,
      "sytuacji": 4030,
      "wieczór": 4031,
      "Now": 4032,
      "ml": 4033,
      "rację": 4034,
      "rus": 4035,
      "czap": 4036,
      "podło": 4037,
      "Jeden": 4038,
      "wzbu": 4039,
      "niona": 4040,
      "owałem": 4041,
      "chętnie": 4042,
      "Wołodyjowskiego": 4043,
      "minut": 4044,
      "11": 4045,
      "un": 4046,
      "dostał": 4047,
      "dotk": 4048,
      "wicza": 4049,
      "owaniu": 4050,
      "obja": 4051,
      "przytom": 4052,
      "ducha": 4053,
      "wzrok": 4054,
      "drogą": 4055,
      "mieszkania": 4056,
      "błęki": 4057,
      "Księ": 4058,
      "lie": 4059,
      "podzi": 4060,
      "łatwiej": 4061,
      "waniu": 4062,
      "wodą": 4063,
      "siu": 4064,
      "ruchu": 4065,
      "gina": 4066,
      "Zaraz": 4067,
      "dzone": 4068,
      "grafi": 4069,
      "podobny": 4070,
      "postać": 4071,
      "przypadku": 4072,
      "Często": 4073,
      "osła": 4074,
      "tle": 4075,
      "vi": 4076,
      "zbiera": 4077,
      "nosząc": 4078,
      "pienia": 4079,
      "podró": 4080,
      "zdą": 4081,
      "zobaczy": 4082,
      "Przecież": 4083,
      "Dru": 4084,
      "IA": 4085,
      "żeniem": 4086,
      "wione": 4087,
      "Szwedzi": 4088,
      "wartości": 4089,
      ".)": 4090,
      "brzu": 4091,
      "wasze": 4092,
      "wiej": 4093,
      "wspomnie": 4094,
      "białe": 4095,
      "mruknął": 4096,
      "Ocho": 4097,
      "plo": 4098,
      "niedzie": 4099,
      "lip": 4100,
      "koły": 4101,
      "koście": 4102,
      "leży": 4103,
      "teli": 4104,
      "wycie": 4105,
      "czasach": 4106,
      "chory": 4107,
      "biegły": 4108,
      "dują": 4109,
      "głosu": 4110,
      "Stary": 4111,
      "robił": 4112,
      "Rozu": 4113,
      "pytania": 4114,
      "nosić": 4115,
      "widzisz": 4116,
      "cezara": 4117,
      "Tar": 4118,
      "ćwi": 4119,
      "kam": 4120,
      "wywo": 4121,
      "dziewię": 4122,
      "Kości": 4123,
      "menty": 4124,
      "wydaje": 4125,
      "osobi": 4126,
      "obecnie": 4127,
      "gr": 4128,
      "usu": 4129,
      "niewin": 4130,
      "posia": 4131,
      "postępo": 4132,
      "koza": 4133,
      "czela": 4134,
      "żywszy": 4135,
      "bej": 4136,
      "większa": 4137,
      "forma": 4138,
      "dziano": 4139,
      "San": 4140,
      "euro": 4141,
      "her": 4142,
      "osią": 4143,
      "uspoko": 4144,
      "zasłu": 4145,
      "kapita": 4146,
      "czyk": 4147,
      "ludu": 4148,
      "bliżej": 4149,
      "gel": 4150,
      "198": 4151,
      "znajduje": 4152,
      "wrażenie": 4153,
      "mieszkańców": 4154,
      "Bogda": 4155,
      "Jó": 4156,
      "Wło": 4157,
      "son": 4158,
      "tować": 4159,
      "Świę": 4160,
      "ryk": 4161,
      "wiary": 4162,
      "jutrz": 4163,
      "Jam": 4164,
      "działem": 4165,
      "rząt": 4166,
      "waszmość": 4167,
      "Każdy": 4168,
      "nować": 4169,
      "Świa": 4170,
      "czni": 4171,
      "pożegna": 4172,
      "rada": 4173,
      "tyki": 4174,
      "tości": 4175,
      "czynić": 4176,
      "czasy": 4177,
      "Jagienka": 4178,
      "związku": 4179,
      "egip": 4180,
      "lała": 4181,
      "udało": 4182,
      "owskiej": 4183,
      "cina": 4184,
      "ciły": 4185,
      "lam": 4186,
      "owana": 4187,
      "weł": 4188,
      "żyły": 4189,
      "deł": 4190,
      "Masz": 4191,
      "Ludzie": 4192,
      "nerał": 4193,
      "pierwszego": 4194,
      "rozmowę": 4195,
      "rodzaju": 4196,
      "CH": 4197,
      "Py": 4198,
      "fon": 4199,
      "tkę": 4200,
      "zję": 4201,
      "narze": 4202,
      "cznik": 4203,
      "tacy": 4204,
      "stawia": 4205,
      "przykła": 4206,
      "zwykł": 4207,
      "dwaj": 4208,
      "przeciwko": 4209,
      "postaci": 4210,
      "Winicjusza": 4211,
      "okrutnie": 4212,
      "Herhor": 4213,
      "Sę": 4214,
      "rzch": 4215,
      "stre": 4216,
      "dole": 4217,
      "wynika": 4218,
      "wez": 4219,
      "Tomasz": 4220,
      "giew": 4221,
      "Panna": 4222,
      "Odys": 4223,
      "drew": 4224,
      "fal": 4225,
      "rali": 4226,
      "tość": 4227,
      "lacji": 4228,
      "sków": 4229,
      "Chło": 4230,
      "szuki": 4231,
      "nienawi": 4232,
      "Między": 4233,
      "fer": 4234,
      "nr": 4235,
      "radość": 4236,
      "jemu": 4237,
      "zagro": 4238,
      "odej": 4239,
      "mencie": 4240,
      "godzinę": 4241,
      "dwor": 4242,
      "drago": 4243,
      "żadnego": 4244,
      "głównie": 4245,
      "organiza": 4246,
      "chorągwie": 4247,
      "wybuch": 4248,
      "Czarniecki": 4249,
      "!\"": 4250,
      "zwraca": 4251,
      "koniu": 4252,
      "dosyć": 4253,
      "mej": 4254,
      "brata": 4255,
      "uczci": 4256,
      "oku": 4257,
      "sfe": 4258,
      "uf": 4259,
      "zgroma": 4260,
      "miłu": 4261,
      "przyszły": 4262,
      "szef": 4263,
      "pyty": 4264,
      "piersiach": 4265,
      "twoja": 4266,
      "Pana": 4267,
      "większy": 4268,
      "rycerzy": 4269,
      "roboty": 4270,
      "wspomina": 4271,
      "względu": 4272,
      "Nowowie": 4273,
      "mln": 4274,
      ".:": 4275,
      "Czu": 4276,
      "Hej": 4277,
      "gni": 4278,
      "zor": 4279,
      "nierucho": 4280,
      "poprze": 4281,
      "zanim": 4282,
      "matki": 4283,
      "przyro": 4284,
      "miarę": 4285,
      "Wil": 4286,
      "Ak": 4287,
      "Mnie": 4288,
      "Oba": 4289,
      "dały": 4290,
      "dować": 4291,
      "umil": 4292,
      "ślub": 4293,
      "wypowie": 4294,
      "czekał": 4295,
      "przyszła": 4296,
      "cofa": 4297,
      "nictwa": 4298,
      "okna": 4299,
      "własnym": 4300,
      "elekt": 4301,
      "utra": 4302,
      "rachu": 4303,
      "roż": 4304,
      "zamy": 4305,
      "zatrzymał": 4306,
      "klasy": 4307,
      "?!": 4308,
      "ii": 4309,
      "knie": 4310,
      "tował": 4311,
      "rzeń": 4312,
      "czam": 4313,
      "biało": 4314,
      "siedzą": 4315,
      "skach": 4316,
      "żonych": 4317,
      "owskim": 4318,
      "Miał": 4319,
      "Mości": 4320,
      "podobna": 4321,
      "Lud": 4322,
      "Ramze": 4323,
      "film": 4324,
      "25": 4325,
      "KA": 4326,
      "mnó": 4327,
      "niów": 4328,
      "las": 4329,
      "dawała": 4330,
      "dworze": 4331,
      "Skrzetuskiego": 4332,
      "poprzednio": 4333,
      "PR": 4334,
      "ana": 4335,
      "nnych": 4336,
      "pochod": 4337,
      "potrzeba": 4338,
      "pośpie": 4339,
      "poczyna": 4340,
      "rzawszy": 4341,
      "kładnie": 4342,
      "rzucić": 4343,
      "pozwala": 4344,
      "rzeczywiście": 4345,
      "dziecka": 4346,
      "dostojność": 4347,
      "postanowił": 4348,
      "jesteśmy": 4349,
      "Ignacy": 4350,
      "Mój": 4351,
      "bem": 4352,
      "kowe": 4353,
      "lni": 4354,
      "śka": 4355,
      "zanie": 4356,
      "minie": 4357,
      "wana": 4358,
      "mury": 4359,
      "boj": 4360,
      "boha": 4361,
      "rękach": 4362,
      "powiadać": 4363,
      "zdrowia": 4364,
      "Mówi": 4365,
      "bitwy": 4366,
      "Król": 4367,
      "Powiedz": 4368,
      "Tru": 4369,
      "ke": 4370,
      "lta": 4371,
      "wów": 4372,
      "wskiej": 4373,
      "napeł": 4374,
      "posu": 4375,
      "lik": 4376,
      "telu": 4377,
      "pami": 4378,
      "angie": 4379,
      "pełne": 4380,
      "uśmiechem": 4381,
      "firmy": 4382,
      "urzędni": 4383,
      "podoba": 4384,
      "kował": 4385,
      "ogło": 4386,
      "nat": 4387,
      "dostrze": 4388,
      "jakże": 4389,
      "brat": 4390,
      "straż": 4391,
      "Patrz": 4392,
      "rodziny": 4393,
      "komenda": 4394,
      "Mefres": 4395,
      "czterech": 4396,
      "fy": 4397,
      "rowie": 4398,
      "rzały": 4399,
      "pokój": 4400,
      "mują": 4401,
      "szale": 4402,
      "stości": 4403,
      "Michale": 4404,
      "logii": 4405,
      "wypadku": 4406,
      "głęboko": 4407,
      "wyraźnie": 4408,
      "dki": 4409,
      "gnia": 4410,
      "zą": 4411,
      "człek": 4412,
      "waża": 4413,
      "dając": 4414,
      "dusz": 4415,
      "Chciał": 4416,
      "zuch": 4417,
      "myślnie": 4418,
      "kryty": 4419,
      "zdaje": 4420,
      "Czech": 4421,
      "wzajem": 4422,
      "?”": 4423,
      "Azja": 4424,
      "Pó": 4425,
      "it": 4426,
      "izbie": 4427,
      "wpad": 4428,
      "zainteres": 4429,
      "rzym": 4430,
      "mych": 4431,
      "wewnętrz": 4432,
      "chodzie": 4433,
      "skra": 4434,
      "odpowiedź": 4435,
      "próżno": 4436,
      "Dłu": 4437,
      "Krze": 4438,
      "Wal": 4439,
      "trzu": 4440,
      "niwer": 4441,
      "wiedzą": 4442,
      "dzisiej": 4443,
      "miesięcy": 4444,
      "pisu": 4445,
      "szczęścia": 4446,
      "większe": 4447,
      "kilkunastu": 4448,
      "wspom": 4449,
      "dziennika": 4450,
      "Otóż": 4451,
      "pomy": 4452,
      "miu": 4453,
      "tatar": 4454,
      "przeba": 4455,
      "kupić": 4456,
      "nięcia": 4457,
      "książęca": 4458,
      "194": 4459,
      "Tur": 4460,
      "sztur": 4461,
      "kolei": 4462,
      "procent": 4463,
      "Czemu": 4464,
      "Ligia": 4465,
      "Anu": 4466,
      "imi": 4467,
      "imieniu": 4468,
      "znie": 4469,
      "żon": 4470,
      "szkie": 4471,
      "przeto": 4472,
      "owanych": 4473,
      "przychodzi": 4474,
      "najbliż": 4475,
      "przedmio": 4476,
      "rzami": 4477,
      "młodego": 4478,
      "kompu": 4479,
      "słyszawszy": 4480,
      "wnątrz": 4481,
      "cką": 4482,
      "rowe": 4483,
      "szta": 4484,
      "zawar": 4485,
      "wością": 4486,
      "macie": 4487,
      "szyję": 4488,
      "piera": 4489,
      "życzli": 4490,
      "lona": 4491,
      "lkoho": 4492,
      "telewi": 4493,
      "Gra": 4494,
      "Hu": 4495,
      "nowej": 4496,
      "trady": 4497,
      "myślą": 4498,
      "kazała": 4499,
      "dio": 4500,
      "czegoś": 4501,
      "ruszyć": 4502,
      "spać": 4503,
      "prosić": 4504,
      "Sło": 4505,
      "tnej": 4506,
      "dokładnie": 4507,
      "tent": 4508,
      "lonych": 4509,
      "socja": 4510,
      "prowadzą": 4511,
      "strzel": 4512,
      "policji": 4513,
      "małe": 4514,
      "zmieni": 4515,
      "pozba": 4516,
      "chorągiew": 4517,
      "okolicy": 4518,
      "Ligii": 4519,
      "Chrystus": 4520,
      "udzie": 4521,
      "naszą": 4522,
      "lina": 4523,
      "zajutrz": 4524,
      "wan": 4525,
      "sić": 4526,
      "zdro": 4527,
      "nięcie": 4528,
      "dźwie": 4529,
      "ciemności": 4530,
      "Według": 4531,
      "żelaz": 4532,
      "osiem": 4533,
      "przedsiębior": 4534,
      "100": 4535,
      "St": 4536,
      "Skąd": 4537,
      "cła": 4538,
      "zakre": 4539,
      "leci": 4540,
      "wymie": 4541,
      "wieniem": 4542,
      "czytał": 4543,
      "przestęp": 4544,
      "owano": 4545,
      "łych": 4546,
      "pień": 4547,
      "innej": 4548,
      "sekre": 4549,
      "pewny": 4550,
      "człowiekiem": 4551,
      "pozwo": 4552,
      "rozległ": 4553,
      "--------": 4554,
      "Wszak": 4555,
      "lod": 4556,
      "chowie": 4557,
      "posłu": 4558,
      "ciszy": 4559,
      "kape": 4560,
      "nos": 4561,
      "przygot": 4562,
      "faj": 4563,
      "musiała": 4564,
      "ostatnie": 4565,
      "myślił": 4566,
      "oboje": 4567,
      "glądać": 4568,
      "gorzej": 4569,
      "Minister": 4570,
      "nową": 4571,
      "kupi": 4572,
      "Pozna": 4573,
      "władzy": 4574,
      "Niechże": 4575,
      "ból": 4576,
      "Egiptu": 4577,
      "yyy": 4578,
      "blo": 4579,
      "blem": 4580,
      "sno": 4581,
      "nacze": 4582,
      "rego": 4583,
      "boku": 4584,
      "czać": 4585,
      "gdybym": 4586,
      "stracił": 4587,
      "ństwie": 4588,
      "obozu": 4589,
      "ojczyzny": 4590,
      "czterdzie": 4591,
      "Mów": 4592,
      "Pię": 4593,
      "złego": 4594,
      "powoli": 4595,
      "zali": 4596,
      "zasło": 4597,
      "leżał": 4598,
      "widziała": 4599,
      "rzyli": 4600,
      "łat": 4601,
      "najlepiej": 4602,
      "tamtej": 4603,
      "dawniej": 4604,
      "północ": 4605,
      "nikami": 4606,
      "głosów": 4607,
      "walki": 4608,
      "zobaczyć": 4609,
      "społecze": 4610,
      "otworzył": 4611,
      "Wę": 4612,
      "wstał": 4613,
      "letni": 4614,
      "stanu": 4615,
      "siedem": 4616,
      "rzach": 4617,
      "jącymi": 4618,
      "konfe": 4619,
      "pięciu": 4620,
      "ujrzał": 4621,
      "błaga": 4622,
      "pobliżu": 4623,
      "podróży": 4624,
      "Tro": 4625,
      "km": 4626,
      "upad": 4627,
      "kata": 4628,
      "lasu": 4629,
      "musie": 4630,
      "profe": 4631,
      "dłoń": 4632,
      "Polska": 4633,
      "środowi": 4634,
      "wszelkie": 4635,
      "podstaw": 4636,
      "porządku": 4637,
      "tzw": 4638,
      "Rzeczpospoli": 4639,
      "Ca": 4640,
      "natu": 4641,
      "zaga": 4642,
      "nionych": 4643,
      "twarze": 4644,
      "pewnym": 4645,
      "Rady": 4646,
      "sęp": 4647,
      "zerwał": 4648,
      "nował": 4649,
      "sne": 4650,
      "rzony": 4651,
      "pogar": 4652,
      "paść": 4653,
      "lać": 4654,
      "przyjął": 4655,
      "ruje": 4656,
      "stołu": 4657,
      "niejszym": 4658,
      "przedtem": 4659,
      "ściem": 4660,
      "większą": 4661,
      "ojczy": 4662,
      "Angli": 4663,
      "krwią": 4664,
      "wysokości": 4665,
      "sklepu": 4666,
      "wszędzie": 4667,
      "Mał": 4668,
      "far": 4669,
      "oś": 4670,
      "posłów": 4671,
      "cisza": 4672,
      "tomiast": 4673,
      "rumie": 4674,
      "Podob": 4675,
      "pór": 4676,
      "czono": 4677,
      "swojego": 4678,
      "krzyż": 4679,
      "zwykły": 4680,
      "grupy": 4681,
      "pamięci": 4682,
      "informacji": 4683,
      "metrów": 4684,
      "Ow": 4685,
      "gwa": 4686,
      "nieważ": 4687,
      "niegdyś": 4688,
      "lii": 4689,
      "jeść": 4690,
      "kapi": 4691,
      "bywał": 4692,
      "jam": 4693,
      "rynku": 4694,
      "odrzekła": 4695,
      "rozkazu": 4696,
      "Pom": 4697,
      "chody": 4698,
      "uwagi": 4699,
      "oboję": 4700,
      "uśmiech": 4701,
      "pą": 4702,
      "zmniej": 4703,
      "posł": 4704,
      "domów": 4705,
      "mogłem": 4706,
      "głą": 4707,
      "prosto": 4708,
      "Natomiast": 4709,
      "pewnością": 4710,
      "brała": 4711,
      "Wasza": 4712,
      "zęby": 4713,
      "akcji": 4714,
      "jeźdź": 4715,
      "Ani": 4716,
      "Ate": 4717,
      "sna": 4718,
      "nadal": 4719,
      "potra": 4720,
      "zatru": 4721,
      "wiły": 4722,
      "techni": 4723,
      "jaw": 4724,
      "działo": 4725,
      "mując": 4726,
      "sklepie": 4727,
      "Stach": 4728,
      "zdanie": 4729,
      "wiono": 4730,
      "hała": 4731,
      "dzieży": 4732,
      "cień": 4733,
      "szab": 4734,
      "żoną": 4735,
      "Wia": 4736,
      "polskiej": 4737,
      "obozie": 4738,
      "alkoho": 4739,
      "szów": 4740,
      "poboż": 4741,
      "rosyj": 4742,
      "lec": 4743,
      "winy": 4744,
      "remo": 4745,
      "odde": 4746,
      "boi": 4747,
      "cać": 4748,
      "chodząc": 4749,
      "podnie": 4750,
      "sieni": 4751,
      "kazało": 4752,
      "Można": 4753,
      "księciu": 4754,
      "zawod": 4755,
      "chwyta": 4756,
      "zgodnie": 4757,
      "Wszystkie": 4758,
      "Hitch": 4759,
      "miesiąc": 4760,
      "pałacu": 4761,
      "Jezus": 4762,
      "słyszeć": 4763,
      "Ser": 4764,
      "otrzyma": 4765,
      "tność": 4766,
      "twem": 4767,
      "wodzie": 4768,
      "maja": 4769,
      "dyda": 4770,
      "róg": 4771,
      "sklep": 4772,
      "dłem": 4773,
      "!…”": 4774,
      "Nigdy": 4775,
      "sposobem": 4776,
      "pogrą": 4777,
      "Hitchco": 4778,
      "Kar": 4779,
      "bł": 4780,
      "wsta": 4781,
      "zwi": 4782,
      "wydał": 4783,
      "toż": 4784,
      "rea": 4785,
      "obfi": 4786,
      "przybra": 4787,
      "prawił": 4788,
      "rozkazy": 4789,
      "Jedno": 4790,
      "puścić": 4791,
      "Krzyszto": 4792,
      "osoba": 4793,
      "srebr": 4794,
      "Ursu": 4795,
      "Dro": 4796,
      "Kale": 4797,
      "zrozumiał": 4798,
      "źć": 4799,
      "powrót": 4800,
      "ramię": 4801,
      "liwie": 4802,
      "kato": 4803,
      "wola": 4804,
      "damy": 4805,
      "kieli": 4806,
      "piał": 4807,
      "meto": 4808,
      "wzdłuż": 4809,
      "rycerze": 4810,
      "polskie": 4811,
      "nadziei": 4812,
      "wstrzą": 4813,
      "40": 4814,
      "Kro": 4815,
      "Pój": 4816,
      "efe": 4817,
      "mowy": 4818,
      "komo": 4819,
      "wybra": 4820,
      "rys": 4821,
      "ciela": 4822,
      "obia": 4823,
      "przyjem": 4824,
      "codzien": 4825,
      "beł": 4826,
      "chwilą": 4827,
      "druga": 4828,
      "Raz": 4829,
      "święty": 4830,
      "tłum": 4831,
      "Murzy": 4832,
      "zmiany": 4833,
      "Wąs": 4834,
      "Pentuer": 4835,
      "niebezpie": 4836,
      "nieszczęście": 4837,
      "liła": 4838,
      "wygląd": 4839,
      "budow": 4840,
      "służą": 4841,
      "łeb": 4842,
      "każdą": 4843,
      "szkoły": 4844,
      "szone": 4845,
      "spokoju": 4846,
      "struktu": 4847,
      "seksu": 4848,
      "Miej": 4849,
      "skóry": 4850,
      "nieprzyjaciela": 4851,
      "Właśnie": 4852,
      "gwar": 4853,
      "ks": 4854,
      "pomaga": 4855,
      "mistrza": 4856,
      "lot": 4857,
      "jegomość": 4858,
      "sług": 4859,
      "wielce": 4860,
      "parła": 4861,
      "Star": 4862,
      "zwycza": 4863,
      "cyjnej": 4864,
      "majątek": 4865,
      "gałę": 4866,
      "powinna": 4867,
      "olbrzymi": 4868,
      "odpowiedzial": 4869,
      "projekt": 4870,
      "SLD": 4871,
      "22": 4872,
      "dniem": 4873,
      "nce": 4874,
      "wtó": 4875,
      "żała": 4876,
      "pomó": 4877,
      "wysu": 4878,
      "wielo": 4879,
      "cymi": 4880,
      "szczerze": 4881,
      "słyszy": 4882,
      "mart": 4883,
      "owskich": 4884,
      "działania": 4885,
      "Tuhaj": 4886,
      "gniewu": 4887,
      "myślisz": 4888,
      "brzeg": 4889,
      "południ": 4890,
      "Żo": 4891,
      "porozumie": 4892,
      "mag": 4893,
      "boże": 4894,
      "brakło": 4895,
      "okół": 4896,
      "warsza": 4897,
      "197": 4898,
      "Pewnie": 4899,
      "ucieka": 4900,
      "cezar": 4901,
      "blu": 4902,
      "nko": 4903,
      "pch": 4904,
      "sznu": 4905,
      "zarzu": 4906,
      "zamek": 4907,
      "dostęp": 4908,
      "dziło": 4909,
      "owiec": 4910,
      "strachu": 4911,
      "pełno": 4912,
      "dźwię": 4913,
      "kierunku": 4914,
      "oszczę": 4915,
      "pł": 4916,
      "schro": 4917,
      "ve": 4918,
      "wpół": 4919,
      "nasi": 4920,
      "nastąpi": 4921,
      "niały": 4922,
      "kolum": 4923,
      "kat": 4924,
      "żebym": 4925,
      "danie": 4926,
      "nomar": 4927,
      "reda": 4928,
      "manie": 4929,
      "odga": 4930,
      "pannę": 4931,
      "będąc": 4932,
      "Jeste": 4933,
      "zdję": 4934,
      "własnych": 4935,
      "Czego": 4936,
      "Bille": 4937,
      "Żydów": 4938,
      "uśmiechnął": 4939,
      "znaleźli": 4940,
      "kowych": 4941,
      "usa": 4942,
      "zgło": 4943,
      "rzeniem": 4944,
      "wykony": 4945,
      "dala": 4946,
      "owarzy": 4947,
      "szczenia": 4948,
      "filo": 4949,
      "Jej": 4950,
      "całkowi": 4951,
      "wracał": 4952,
      "samych": 4953,
      "Europej": 4954,
      "tygodni": 4955,
      "Ol": 4956,
      "PA": 4957,
      "Zdawało": 4958,
      "bór": 4959,
      "chra": 4960,
      "rosły": 4961,
      "jech": 4962,
      "wycię": 4963,
      "oddać": 4964,
      "prawdy": 4965,
      "Szlan": 4966,
      "bronić": 4967,
      "księżna": 4968,
      "trwa": 4969,
      "chodów": 4970,
      "pierwszych": 4971,
      "Tatarów": 4972,
      "Babinicz": 4973,
      "Owszem": 4974,
      "NI": 4975,
      "wne": 4976,
      "ńscy": 4977,
      "nikomu": 4978,
      "zatrzy": 4979,
      "zachwy": 4980,
      "wierzyć": 4981,
      "dziły": 4982,
      "skały": 4983,
      "fizy": 4984,
      "chodziła": 4985,
      "starszy": 4986,
      "koniecznie": 4987,
      "Rzędzian": 4988,
      "Gło": 4989,
      "Ste": 4990,
      "bod": 4991,
      "rab": 4992,
      "godnie": 4993,
      "mami": 4994,
      "niają": 4995,
      "onów": 4996,
      "fortu": 4997,
      "Men": 4998,
      "pierwsza": 4999,
      "Polaków": 5000,
      "pracowników": 5001,
      "większość": 5002,
      "prezydenta": 5003,
      "Tadeusz": 5004,
      "Szlang": 5005,
      "ZA": 5006,
      "snąć": 5007,
      "ukazał": 5008,
      "nazy": 5009,
      "moło": 5010,
      "łym": 5011,
      "meta": 5012,
      "chami": 5013,
      "sobo": 5014,
      "młodzi": 5015,
      "forte": 5016,
      "chęć": 5017,
      "wiadomości": 5018,
      "Rob": 5019,
      "fol": 5020,
      "gno": 5021,
      "kały": 5022,
      "chą": 5023,
      "szty": 5024,
      "jezio": 5025,
      "gość": 5026,
      "tanie": 5027,
      "żeniu": 5028,
      "dawał": 5029,
      "spoczy": 5030,
      "Wyso": 5031,
      "Mimo": 5032,
      "szukał": 5033,
      "małego": 5034,
      "siłę": 5035,
      "należą": 5036,
      "cyjny": 5037,
      "ekspe": 5038,
      "pójdę": 5039,
      "skrzydła": 5040,
      "spotkanie": 5041,
      "Izabeli": 5042,
      "Chrystusa": 5043,
      "Two": 5044,
      "jmy": 5045,
      "oznaj": 5046,
      "otwie": 5047,
      "pnia": 5048,
      "śpi": 5049,
      "niekiedy": 5050,
      "niewiele": 5051,
      "niedźwie": 5052,
      "stka": 5053,
      "roka": 5054,
      "liczne": 5055,
      "zapro": 5056,
      "zamiesz": 5057,
      "zawzię": 5058,
      "jan": 5059,
      "czytać": 5060,
      "rezy": 5061,
      "kun": 5062,
      "powietrzu": 5063,
      "sąsia": 5064,
      "dzeniem": 5065,
      "Toż": 5066,
      "partii": 5067,
      "tronu": 5068,
      "szczególnie": 5069,
      "Juranda": 5070,
      "przyczyny": 5071,
      "oznacza": 5072,
      "środek": 5073,
      "Wczoraj": 5074,
      "dnych": 5075,
      "lów": 5076,
      "ńcem": 5077,
      "żka": 5078,
      "szpa": 5079,
      "zagrani": 5080,
      "dopóki": 5081,
      "wypła": 5082,
      "reży": 5083,
      "zel": 5084,
      "pur": 5085,
      "niosły": 5086,
      "łej": 5087,
      "Mia": 5088,
      "następca": 5089,
      "Kur": 5090,
      "obrony": 5091,
      "możliwe": 5092,
      "szczęśliwy": 5093,
      "szeroko": 5094,
      "wzrokiem": 5095,
      "kniaziów": 5096,
      "niespodzia": 5097,
      "60": 5098,
      "mgnie": 5099,
      "listo": 5100,
      "wychy": 5101,
      "łożył": 5102,
      "oblę": 5103,
      "biła": 5104,
      "problem": 5105,
      "syte": 5106,
      "Jakie": 5107,
      "sądu": 5108,
      "tran": 5109,
      "ństw": 5110,
      "premie": 5111,
      "tkowo": 5112,
      "chodź": 5113,
      "zależy": 5114,
      "rozmawiać": 5115,
      "ostatniej": 5116,
      "program": 5117,
      "praszam": 5118,
      "doskonale": 5119,
      "fanta": 5120,
      "Szlangba": 5121,
      "lały": 5122,
      "zwło": 5123,
      "łzami": 5124,
      "śmiało": 5125,
      "niektórych": 5126,
      "stó": 5127,
      "kilo": 5128,
      "nogami": 5129,
      "czyński": 5130,
      "kiewicz": 5131,
      "skro": 5132,
      "fis": 5133,
      "wiadomość": 5134,
      "właściwie": 5135,
      "powinni": 5136,
      "Aulu": 5137,
      "dnym": 5138,
      "nką": 5139,
      "uwol": 5140,
      "zmy": 5141,
      "znu": 5142,
      "czce": 5143,
      "czały": 5144,
      "nili": 5145,
      "czynił": 5146,
      "przeszka": 5147,
      "spor": 5148,
      "siedli": 5149,
      "figu": 5150,
      "Chce": 5151,
      "pewnego": 5152,
      "brwi": 5153,
      "tłumy": 5154,
      "światła": 5155,
      "przyjść": 5156,
      "pioru": 5157,
      "dziewczyny": 5158,
      "jakimś": 5159,
      "okazji": 5160,
      "Pierwszy": 5161,
      "gwałtow": 5162,
      "słyszałem": 5163,
      "Kazimierz": 5164,
      "Oleńka": 5165,
      "dół": 5166,
      "orze": 5167,
      "th": 5168,
      "trzę": 5169,
      "żby": 5170,
      "nieprzyjaciół": 5171,
      "pogrze": 5172,
      "gom": 5173,
      "kochał": 5174,
      "tydzień": 5175,
      "pieśni": 5176,
      "piw": 5177,
      "owość": 5178,
      "górze": 5179,
      "każda": 5180,
      "sztuki": 5181,
      "względem": 5182,
      "kolana": 5183,
      "Vi": 5184,
      "dnej": 5185,
      "jona": 5186,
      "zza": 5187,
      "lili": 5188,
      "woju": 5189,
      "przeszedł": 5190,
      "dym": 5191,
      "mien": 5192,
      "salo": 5193,
      "pisze": 5194,
      "podał": 5195,
      "gij": 5196,
      "chach": 5197,
      "Miło": 5198,
      "słod": 5199,
      "przyjaciel": 5200,
      "ramionami": 5201,
      "miecznik": 5202,
      "otu": 5203,
      "naci": 5204,
      "poszli": 5205,
      "rolę": 5206,
      "wyszła": 5207,
      "stal": 5208,
      "sport": 5209,
      "nadto": 5210,
      "powstrzy": 5211,
      "złota": 5212,
      "zmiesza": 5213,
      "możliwości": 5214,
      "dobrego": 5215,
      "oficerów": 5216,
      "filozo": 5217,
      "Powia": 5218,
      "rował": 5219,
      "wka": 5220,
      "zny": 5221,
      "śń": 5222,
      "naraz": 5223,
      "pośred": 5224,
      "zabie": 5225,
      "wiecznie": 5226,
      "obser": 5227,
      "Chwi": 5228,
      "pewna": 5229,
      "zostali": 5230,
      "porwał": 5231,
      "pamiętam": 5232,
      "środka": 5233,
      "młodych": 5234,
      "powtarzał": 5235,
      "prezent": 5236,
      "prezydent": 5237,
      "stóp": 5238,
      "Ej": 5239,
      "adwo": 5240,
      "pru": 5241,
      "pocał": 5242,
      "zamia": 5243,
      "pasa": 5244,
      "wolu": 5245,
      "bawi": 5246,
      "bitwie": 5247,
      "sied": 5248,
      "Jaki": 5249,
      "wolał": 5250,
      "małże": 5251,
      "czarne": 5252,
      "zwierząt": 5253,
      "krótko": 5254,
      "język": 5255,
      "Stanisław": 5256,
      "kta": 5257,
      "ogo": 5258,
      "ódł": 5259,
      "niektórzy": 5260,
      "czką": 5261,
      "zap": 5262,
      "dola": 5263,
      "łańcu": 5264,
      "wyciągnął": 5265,
      "dera": 5266,
      "inną": 5267,
      "służy": 5268,
      "gieł": 5269,
      "panii": 5270,
      "dziawszy": 5271,
      "milczenie": 5272,
      "dowanie": 5273,
      "pamięć": 5274,
      "głupi": 5275,
      "afe": 5276,
      "fie": 5277,
      "umyślnie": 5278,
      "zowie": 5279,
      "pozostał": 5280,
      "gotowa": 5281,
      "tylu": 5282,
      "noś": 5283,
      "nąc": 5284,
      "delika": 5285,
      "wiam": 5286,
      "niejszą": 5287,
      "niejszego": 5288,
      "Niemie": 5289,
      "medy": 5290,
      "najwięcej": 5291,
      "służyć": 5292,
      "niono": 5293,
      "?…”": 5294,
      "próbu": 5295,
      "późno": 5296,
      "godny": 5297,
      "dwór": 5298,
      "składa": 5299,
      "Andrzeja": 5300,
      "Hiram": 5301,
      "tysiąc": 5302,
      "jakiegoś": 5303,
      "świątobliwości": 5304,
      "USA": 5305,
      "schy": 5306,
      "połowie": 5307,
      "ałe": 5308,
      "koryta": 5309,
      "żeni": 5310,
      "obszer": 5311,
      "ture": 5312,
      "spowo": 5313,
      "ing": 5314,
      "cudzo": 5315,
      "dzeń": 5316,
      "Taki": 5317,
      "pierwej": 5318,
      "stek": 5319,
      "granicy": 5320,
      "Mikoła": 5321,
      "wolności": 5322,
      "interesu": 5323,
      "artyku": 5324,
      "niwersyte": 5325,
      "Żołnie": 5326,
      "23": 5327,
      "Gó": 5328,
      "udał": 5329,
      "ślu": 5330,
      "pociąg": 5331,
      "godz": 5332,
      "mana": 5333,
      "dywi": 5334,
      "szymi": 5335,
      "niając": 5336,
      "bogowie": 5337,
      "pienie": 5338,
      "wzrusze": 5339,
      "Ależ": 5340,
      "dawały": 5341,
      "począć": 5342,
      "odpowied": 5343,
      "demu": 5344,
      "wieczora": 5345,
      "kandyda": 5346,
      "świątobliwość": 5347,
      "wściekło": 5348,
      "europej": 5349,
      "Mem": 5350,
      "opo": 5351,
      "tnego": 5352,
      "posęp": 5353,
      "nina": 5354,
      "tań": 5355,
      "nes": 5356,
      "paź": 5357,
      "wyrzu": 5358,
      "tył": 5359,
      "wiedząc": 5360,
      "mas": 5361,
      "maszy": 5362,
      "stada": 5363,
      "biły": 5364,
      "instytu": 5365,
      "kłó": 5366,
      "trakt": 5367,
      "chodzili": 5368,
      "chciałem": 5369,
      "Zagłoby": 5370,
      "oficja": 5371,
      "pułki": 5372,
      "Niemcy": 5373,
      "mądro": 5374,
      "sukce": 5375,
      "Miller": 5376,
      "drewnia": 5377,
      "mnóstwo": 5378,
      "Szy": 5379,
      "grał": 5380,
      "naprzeciw": 5381,
      "szkla": 5382,
      "pojechał": 5383,
      "zar": 5384,
      "widzieli": 5385,
      "wodz": 5386,
      "przesta": 5387,
      "czoną": 5388,
      "żono": 5389,
      "Stasia": 5390,
      "Lip": 5391,
      "Egipt": 5392,
      "Niemców": 5393,
      "Tatarzy": 5394,
      "średni": 5395,
      "nazwisko": 5396,
      "demokra": 5397,
      "Longi": 5398,
      "puszczał": 5399,
      "wypadek": 5400,
      "słowem": 5401,
      "Asy": 5402,
      "opuścił": 5403,
      "prowi": 5404,
      "snęła": 5405,
      "uci": 5406,
      "pożar": 5407,
      "jechała": 5408,
      "rysto": 5409,
      "lubo": 5410,
      "Woje": 5411,
      "rodzin": 5412,
      "niepokój": 5413,
      "historii": 5414,
      "robię": 5415,
      "Jednakże": 5416,
      "więzienia": 5417,
      "Myśl": 5418,
      "musieli": 5419,
      "Cy": 5420,
      "TO": 5421,
      "Zda": 5422,
      "spy": 5423,
      "znę": 5424,
      "zacja": 5425,
      "wicy": 5426,
      "wata": 5427,
      "nocą": 5428,
      "stam": 5429,
      "szel": 5430,
      "boru": 5431,
      "zechce": 5432,
      "powstał": 5433,
      "słuchaj": 5434,
      "starosta": 5435,
      "administra": 5436,
      "trzydzieści": 5437,
      "Charłam": 5438,
      "!”.": 5439,
      "AW": 5440,
      "rwo": 5441,
      "spytała": 5442,
      "tnia": 5443,
      "napo": 5444,
      "mija": 5445,
      "łaski": 5446,
      "wybiera": 5447,
      "bab": 5448,
      "pies": 5449,
      "najważ": 5450,
      "dobrą": 5451,
      "trzecie": 5452,
      "konta": 5453,
      "ństwem": 5454,
      "dźwi": 5455,
      "szono": 5456,
      "cyjnego": 5457,
      "zdrowi": 5458,
      "tęskno": 5459,
      "kaszte": 5460,
      "pojedyn": 5461,
      "Gda": 5462,
      "Malbo": 5463,
      "PO": 5464,
      "có": 5465,
      "eli": 5466,
      "oprócz": 5467,
      "lia": 5468,
      "rep": 5469,
      "eme": 5470,
      "praca": 5471,
      "char": 5472,
      "ącą": 5473,
      "myślałem": 5474,
      "zdaniem": 5475,
      "milczał": 5476,
      "żołnier": 5477,
      "dwoma": 5478,
      "ruszyli": 5479,
      "południe": 5480,
      "Sejm": 5481,
      "mołoj": 5482,
      "ER": 5483,
      "ng": 5484,
      "sję": 5485,
      "cznymi": 5486,
      "stół": 5487,
      "leciał": 5488,
      "sar": 5489,
      "gaze": 5490,
      "zespo": 5491,
      "punk": 5492,
      "Zawsze": 5493,
      "wól": 5494,
      "wszelako": 5495,
      "słone": 5496,
      "księdza": 5497,
      "klaszto": 5498,
      "zdoła": 5499,
      "godne": 5500,
      "pustyni": 5501,
      "namiestnik": 5502,
      "Ramzesa": 5503,
      "Ró": 5504,
      "awa": 5505,
      "opan": 5506,
      "opowiadał": 5507,
      "Żmu": 5508,
      "rany": 5509,
      "zaufa": 5510,
      "wygra": 5511,
      "torów": 5512,
      "przeszko": 5513,
      "biegła": 5514,
      "podniosła": 5515,
      "konkur": 5516,
      "zdania": 5517,
      "targ": 5518,
      "lekko": 5519,
      "piękny": 5520,
      "Kul": 5521,
      "robot": 5522,
      "kogoś": 5523,
      "stopni": 5524,
      "piechoty": 5525,
      "kościoła": 5526,
      "Krak": 5527,
      "wny": 5528,
      "nala": 5529,
      "niedawno": 5530,
      "poto": 5531,
      "goni": 5532,
      "wypeł": 5533,
      "tyłu": 5534,
      "mani": 5535,
      "dum": 5536,
      "szczenie": 5537,
      "okno": 5538,
      "króle": 5539,
      "ważne": 5540,
      "podobno": 5541,
      "walił": 5542,
      "dworu": 5543,
      "Mari": 5544,
      "gotowi": 5545,
      "Janusz": 5546,
      "komuni": 5547,
      "mężczyzna": 5548,
      "jeździe": 5549,
      "Chmielnickiego": 5550,
      "chłopak": 5551,
      "otacza": 5552,
      "Justyna": 5553,
      "swymi": 5554,
      "komó": 5555,
      "domy": 5556,
      "mojego": 5557,
      "pió": 5558,
      "Ponieważ": 5559,
      "żać": 5560,
      "Takie": 5561,
      "dzono": 5562,
      "sercem": 5563,
      "stanow": 5564,
      "Lit": 5565,
      "następcy": 5566,
      "okresie": 5567,
      "radością": 5568,
      "Radziwiłł": 5569,
      "hrabi": 5570,
      "Ochocki": 5571,
      "paździer": 5572,
      "Gru": 5573,
      "Idry": 5574,
      "Trzy": 5575,
      "Zło": 5576,
      "aresz": 5577,
      "is": 5578,
      "okie": 5579,
      "sje": 5580,
      "złu": 5581,
      "łki": 5582,
      "napad": 5583,
      "czała": 5584,
      "pojedzie": 5585,
      "koron": 5586,
      "pania": 5587,
      "maj": 5588,
      "przysz": 5589,
      "rusz": 5590,
      "duchu": 5591,
      "Niektórzy": 5592,
      "lono": 5593,
      "styczne": 5594,
      "rian": 5595,
      "mogąc": 5596,
      "serde": 5597,
      "Tygel": 5598,
      "straszne": 5599,
      "organiz": 5600,
      "słusznie": 5601,
      "Następnie": 5602,
      "Witold": 5603,
      "Cię": 5604,
      "Tra": 5605,
      "Zbara": 5606,
      "kowej": 5607,
      "klej": 5608,
      "ncie": 5609,
      "ołta": 5610,
      "uszu": 5611,
      "zbi": 5612,
      "porówna": 5613,
      "ciło": 5614,
      "gada": 5615,
      "inna": 5616,
      "jedni": 5617,
      "Jere": 5618,
      "niosą": 5619,
      "twoją": 5620,
      "łen": 5621,
      "ustach": 5622,
      "chłopów": 5623,
      "zaczęli": 5624,
      "polskim": 5625,
      "wniosek": 5626,
      "Cent": 5627,
      "ekono": 5628,
      "otrzy": 5629,
      "oświe": 5630,
      "upo": 5631,
      "pomimo": 5632,
      "zastęp": 5633,
      "cin": 5634,
      "doszło": 5635,
      "dokąd": 5636,
      "bank": 5637,
      "głe": 5638,
      "twojej": 5639,
      "robią": 5640,
      "tarł": 5641,
      "stanowisko": 5642,
      "potrzeby": 5643,
      "heł": 5644,
      "pięćdziesiąt": 5645,
      "drzwiach": 5646,
      "dziewięć": 5647,
      "Flo": 5648,
      "spły": 5649,
      "radę": 5650,
      "gorz": 5651,
      "teor": 5652,
      "łami": 5653,
      "waści": 5654,
      "wokół": 5655,
      "mora": 5656,
      "wiają": 5657,
      "stość": 5658,
      "Narod": 5659,
      "śmiechem": 5660,
      "rządza": 5661,
      "kończy": 5662,
      "draż": 5663,
      "dłonie": 5664,
      "dłoni": 5665,
      "ratury": 5666,
      "Aposto": 5667,
      "otrzymał": 5668,
      "ptak": 5669,
      "źre": 5670,
      "żąd": 5671,
      "zato": 5672,
      "zabezpie": 5673,
      "sięga": 5674,
      "dostar": 5675,
      "miot": 5676,
      "nogach": 5677,
      "kują": 5678,
      "gatu": 5679,
      "biegli": 5680,
      "znakomi": 5681,
      "skała": 5682,
      "siedzieć": 5683,
      "nictwo": 5684,
      "braci": 5685,
      "Mah": 5686,
      "skutek": 5687,
      "193": 5688,
      "kilkadziesiąt": 5689,
      "port": 5690,
      "kochany": 5691,
      "środków": 5692,
      "Mę": 5693,
      "aku": 5694,
      "fla": 5695,
      "uję": 5696,
      "szó": 5697,
      "poszła": 5698,
      "nikom": 5699,
      "mić": 5700,
      "cek": 5701,
      "owaniem": 5702,
      "obło": 5703,
      "prawić": 5704,
      "rozmowa": 5705,
      "ciął": 5706,
      "Wido": 5707,
      "dawnych": 5708,
      "działalności": 5709,
      "ściami": 5710,
      "El": 5711,
      "XX": 5712,
      "qu": 5713,
      "trój": 5714,
      "uje": 5715,
      "rzało": 5716,
      "nał": 5717,
      "nań": 5718,
      "nareszcie": 5719,
      "lidar": 5720,
      "zapytała": 5721,
      "dostanie": 5722,
      "dokoła": 5723,
      "pary": 5724,
      "archi": 5725,
      "bracia": 5726,
      "koncer": 5727,
      "Sakowi": 5728,
      "Wać": 5729,
      "trafił": 5730,
      "spokojny": 5731,
      "kapelu": 5732,
      "Ws": 5733,
      "Wró": 5734,
      "cle": 5735,
      "ośmie": 5736,
      "zwol": 5737,
      "niecierpli": 5738,
      "pomie": 5739,
      "niżej": 5740,
      "ścian": 5741,
      "gabi": 5742,
      "del": 5743,
      "żonę": 5744,
      "parla": 5745,
      "konku": 5746,
      "tkach": 5747,
      "milczenia": 5748,
      "przod": 5749,
      "zaczęły": 5750,
      "przyszłości": 5751,
      "zamknię": 5752,
      "olbrzymie": 5753,
      "wyłącznie": 5754,
      "stamtąd": 5755,
      "Malbor": 5756,
      "Adam": 5757,
      "brew": 5758,
      "hm": 5759,
      "kcie": 5760,
      "pr": 5761,
      "ózł": 5762,
      "cicha": 5763,
      "lewo": 5764,
      "jadą": 5765,
      "ordy": 5766,
      "konsu": 5767,
      "piętna": 5768,
      "Rzekł": 5769,
      "śpiewa": 5770,
      "położył": 5771,
      "podstawie": 5772,
      "powrotem": 5773,
      "zauważył": 5774,
      "stycznia": 5775,
      "Bądź": 5776,
      "atak": 5777,
      "asy": 5778,
      "hoj": 5779,
      "utrzyma": 5780,
      "upadł": 5781,
      "zg": 5782,
      "Ślą": 5783,
      "niewoli": 5784,
      "niczy": 5785,
      "raca": 5786,
      "liwe": 5787,
      "żeń": 5788,
      "tyczne": 5789,
      "wierzył": 5790,
      "wozy": 5791,
      "ścił": 5792,
      "obraź": 5793,
      "propozy": 5794,
      "twoim": 5795,
      "trop": 5796,
      "lskich": 5797,
      "dzam": 5798,
      "złożył": 5799,
      "mieszcza": 5800,
      "sprawach": 5801,
      "dowała": 5802,
      "święt": 5803,
      "pisów": 5804,
      "Inni": 5805,
      "Czasem": 5806,
      "organizacji": 5807,
      "jasno": 5808,
      "wpływ": 5809,
      "80": 5810,
      "Dnie": 5811,
      "Kowa": 5812,
      "gminy": 5813,
      "nowym": 5814,
      "ucha": 5815,
      "naród": 5816,
      "poty": 5817,
      "kade": 5818,
      "wiecie": 5819,
      "wiecze": 5820,
      "czeniem": 5821,
      "bek": 5822,
      "skali": 5823,
      "buła": 5824,
      "żonym": 5825,
      "czerwie": 5826,
      "piękne": 5827,
      "kultury": 5828,
      "Danusi": 5829,
      "książki": 5830,
      "Krzesz": 5831,
      "Lor": 5832,
      "klie": 5833,
      "op": 5834,
      "szczył": 5835,
      "rzeli": 5836,
      "obsza": 5837,
      "szeni": 5838,
      "boju": 5839,
      "żyło": 5840,
      "pili": 5841,
      "szać": 5842,
      "gim": 5843,
      "inten": 5844,
      "najczęściej": 5845,
      "działu": 5846,
      "skom": 5847,
      "okrą": 5848,
      "Samo": 5849,
      "Ligię": 5850,
      "małżon": 5851,
      "Maria": 5852,
      "zjawi": 5853,
      "wysokie": 5854,
      "pójść": 5855,
      "wracać": 5856,
      "ratować": 5857,
      "spotkał": 5858,
      "Oczywiście": 5859,
      "Aby": 5860,
      "Nu": 5861,
      "mro": 5862,
      "żały": 5863,
      "poszuki": 5864,
      "łom": 5865,
      "odrzu": 5866,
      "kuzy": 5867,
      "obję": 5868,
      "alem": 5869,
      "głości": 5870,
      "rzadko": 5871,
      "rio": 5872,
      "Kiejda": 5873,
      "straszny": 5874,
      "Józe": 5875,
      "Krakowie": 5876,
      "Im": 5877,
      "Mło": 5878,
      "idąc": 5879,
      "opar": 5880,
      "żki": 5881,
      "poku": 5882,
      "wieś": 5883,
      "wiedziała": 5884,
      "czysz": 5885,
      "moi": 5886,
      "kupy": 5887,
      "bier": 5888,
      "lonym": 5889,
      "lonej": 5890,
      "wzdy": 5891,
      "ciężar": 5892,
      "Maćka": 5893,
      "kazywał": 5894,
      "wątpliwości": 5895,
      "inwesty": 5896,
      "OS": 5897,
      "Obec": 5898,
      "drę": 5899,
      "zachę": 5900,
      "zację": 5901,
      "wiod": 5902,
      "ład": 5903,
      "lasy": 5904,
      "rejest": 5905,
      "bramy": 5906,
      "druży": 5907,
      "kończył": 5908,
      "miejscach": 5909,
      "Nilu": 5910,
      "patrzyli": 5911,
      "nosiła": 5912,
      "cudzoziem": 5913,
      "Głu": 5914,
      "Pło": 5915,
      "cku": 5916,
      "oży": 5917,
      "uto": 5918,
      "óz": 5919,
      "niektóre": 5920,
      "jesta": 5921,
      "zaci": 5922,
      "zaprze": 5923,
      "zabrał": 5924,
      "ciałem": 5925,
      "kary": 5926,
      "wiedzy": 5927,
      "morza": 5928,
      "staj": 5929,
      "krzyki": 5930,
      "dźcie": 5931,
      "północy": 5932,
      "scypli": 5933,
      "ostate": 5934,
      "śmiercią": 5935,
      "terenie": 5936,
      "żadna": 5937,
      "dziwne": 5938,
      "proces": 5939,
      "pierwszą": 5940,
      "chwilami": 5941,
      "ogromne": 5942,
      "hetmana": 5943,
      "niewolników": 5944,
      "przypatry": 5945,
      "prawdopodobnie": 5946,
      "Nowowiejski": 5947,
      "Lin": 5948,
      "Unii": 5949,
      "popu": 5950,
      "pomysł": 5951,
      "leg": 5952,
      "mir": 5953,
      "waszą": 5954,
      "wieki": 5955,
      "któż": 5956,
      "szacu": 5957,
      "sub": 5958,
      "burza": 5959,
      "czonym": 5960,
      "formy": 5961,
      "wojewody": 5962,
      "szlachec": 5963,
      "zabija": 5964,
      "listów": 5965,
      "języka": 5966,
      "iła": 5967,
      "usłyszał": 5968,
      "cona": 5969,
      "rozko": 5970,
      "skaza": 5971,
      "fika": 5972,
      "konkre": 5973,
      "Coś": 5974,
      "każde": 5975,
      "mentar": 5976,
      "Wiesz": 5977,
      "kredy": 5978,
      "Basi": 5979,
      "poczęło": 5980,
      "własnego": 5981,
      "komisji": 5982,
      "wiczów": 5983,
      "skończy": 5984,
      "zginął": 5985,
      "Dzięki": 5986,
      "pozwolił": 5987,
      "KO": 5988,
      "fli": 5989,
      "mk": 5990,
      "utk": 5991,
      "zbior": 5992,
      "linie": 5993,
      "liwy": 5994,
      "zasy": 5995,
      "dozna": 5996,
      "wyjechał": 5997,
      "torium": 5998,
      "wozu": 5999,
      "staw": 6000,
      "progu": 6001,
      "władzę": 6002,
      "rzędu": 6003,
      "podobnych": 6004,
      "należało": 6005,
      "zobaczył": 6006,
      "zwycięstwo": 6007,
      "doskona": 6008,
      "seksual": 6009,
      "rzone": 6010,
      "natury": 6011,
      "nieprze": 6012,
      "nieśli": 6013,
      "czkach": 6014,
      "leniem": 6015,
      "tonem": 6016,
      "rych": 6017,
      "mon": 6018,
      "pilnie": 6019,
      "znaczenie": 6020,
      "stoją": 6021,
      "instru": 6022,
      "mery": 6023,
      "żalu": 6024,
      "ogniem": 6025,
      "nuje": 6026,
      "dzona": 6027,
      "Widzę": 6028,
      "śniegu": 6029,
      "Rot": 6030,
      "pismo": 6031,
      "ciężkie": 6032,
      "Bene": 6033,
      "nadzieja": 6034,
      "południu": 6035,
      "Człowie": 6036,
      "grzmo": 6037,
      "białych": 6038,
      "księżyc": 6039,
      "marszałek": 6040,
      "mgnieniu": 6041,
      "CZ": 6042,
      "US": 6043,
      "Wśród": 6044,
      "eta": 6045,
      "uści": 6046,
      "poinfor": 6047,
      "radzi": 6048,
      "każę": 6049,
      "przybył": 6050,
      "despe": 6051,
      "rozpro": 6052,
      "orsza": 6053,
      "Mary": 6054,
      "Karol": 6055,
      "ratunek": 6056,
      "głup": 6057,
      "dobrym": 6058,
      "history": 6059,
      "szereg": 6060,
      "pachoł": 6061,
      "XIX": 6062,
      "Sar": 6063,
      "akty": 6064,
      "wskim": 6065,
      "owców": 6066,
      "cichy": 6067,
      "wierzę": 6068,
      "respo": 6069,
      "kier": 6070,
      "Niestety": 6071,
      "sena": 6072,
      "czymś": 6073,
      "Czyli": 6074,
      "Sara": 6075,
      "mocniej": 6076,
      "piękna": 6077,
      "wróciła": 6078,
      "puszczać": 6079,
      "kosztow": 6080,
      "wyjść": 6081,
      "gwiazdy": 6082,
      "wicher": 6083,
      "Rozumie": 6084,
      "Pompo": 6085,
      "Mente": 6086,
      "Gro": 6087,
      "Kraj": 6088,
      "cmenta": 6089,
      "emi": 6090,
      "pozio": 6091,
      "rzeniu": 6092,
      "gory": 6093,
      "zagra": 6094,
      "wiała": 6095,
      "wyle": 6096,
      "mali": 6097,
      "odpoczy": 6098,
      "momencie": 6099,
      "szyi": 6100,
      "mur": 6101,
      "podkre": 6102,
      "miaste": 6103,
      "rią": 6104,
      "różno": 6105,
      "Anto": 6106,
      "dowod": 6107,
      "autor": 6108,
      "ludzkich": 6109,
      "dzielić": 6110,
      "okres": 6111,
      "kamień": 6112,
      "spotkać": 6113,
      "jasne": 6114,
      "córki": 6115,
      "religij": 6116,
      "24": 6117,
      "Dale": 6118,
      "Klu": 6119,
      "Mog": 6120,
      "tw": 6121,
      "wtem": 6122,
      "śmia": 6123,
      "sztor": 6124,
      "pocho": 6125,
      "potwo": 6126,
      "koł": 6127,
      "pane": 6128,
      "wysy": 6129,
      "wyobra": 6130,
      "majesta": 6131,
      "boli": 6132,
      "deszcz": 6133,
      "szabla": 6134,
      "loną": 6135,
      "chając": 6136,
      "orga": 6137,
      "fii": 6138,
      "mięk": 6139,
      "czołem": 6140,
      "płaci": 6141,
      "dzają": 6142,
      "złote": 6143,
      "Mosk": 6144,
      "plan": 6145,
      "blask": 6146,
      "kościół": 6147,
      "ostatnim": 6148,
      "otwarte": 6149,
      "okazało": 6150,
      "jakiejś": 6151,
      "Rzymie": 6152,
      "ofiary": 6153,
      "dyrektor": 6154,
      "niedzielę": 6155,
      "Niemiec": 6156,
      "Lorche": 6157,
      "Af": 6158,
      "CE": 6159,
      "Dwa": 6160,
      "RZ": 6161,
      "Sła": 6162,
      "kowy": 6163,
      "żne": 6164,
      "żan": 6165,
      "owro": 6166,
      "liczyć": 6167,
      "zawa": 6168,
      "doszedł": 6169,
      "wiedzieli": 6170,
      "odet": 6171,
      "czeni": 6172,
      "bitwa": 6173,
      "gadać": 6174,
      "szan": 6175,
      "mnieć": 6176,
      "równi": 6177,
      "wolność": 6178,
      "musisz": 6179,
      "czerwca": 6180,
      "Podczas": 6181,
      "powoła": 6182,
      "Czeka": 6183,
      "twierdzi": 6184,
      "nauki": 6185,
      "glądając": 6186,
      "Bohuna": 6187,
      "sprawiedliwości": 6188,
      "handl": 6189,
      "weźmie": 6190,
      "Mentezu": 6191,
      "Hrabia": 6192,
      "Kobie": 6193,
      "jże": 6194,
      "oczami": 6195,
      "śnię": 6196,
      "nasy": 6197,
      "następu": 6198,
      "posie": 6199,
      "poża": 6200,
      "jezd": 6201,
      "bywało": 6202,
      "ładu": 6203,
      "wystąpi": 6204,
      "tory": 6205,
      "rekla": 6206,
      "matu": 6207,
      "oder": 6208,
      "bienia": 6209,
      "Jerzy": 6210,
      "ojcu": 6211,
      "dowali": 6212,
      "głych": 6213,
      "córka": 6214,
      "projektu": 6215,
      "pochylił": 6216,
      "Grze": 6217,
      "Głów": 6218,
      "Pal": 6219,
      "RA": 6220,
      "drą": 6221,
      "owca": 6222,
      "lista": 6223,
      "zapowie": 6224,
      "terze": 6225,
      "patry": 6226,
      "przestał": 6227,
      "oddziały": 6228,
      "muszkie": 6229,
      "mym": 6230,
      "tują": 6231,
      "jakkolwiek": 6232,
      "pannie": 6233,
      "nędz": 6234,
      "sel": 6235,
      "bunt": 6236,
      "wszystkimi": 6237,
      "Marek": 6238,
      "waćpanna": 6239,
      "Paweł": 6240,
      "gęst": 6241,
      "płynie": 6242,
      "tkami": 6243,
      "Pew": 6244,
      "fur": 6245,
      "patrzyć": 6246,
      "żadne": 6247,
      "królowi": 6248,
      "strasznie": 6249,
      "błyszczą": 6250,
      "miesiące": 6251,
      "czerwone": 6252,
      "zdziwieniem": 6253,
      "grzbie": 6254,
      "uzyska": 6255,
      "przypomniał": 6256,
      "katoli": 6257,
      "ktem": 6258,
      "opowie": 6259,
      "sał": 6260,
      "tnik": 6261,
      "iem": 6262,
      "ponow": 6263,
      "zaro": 6264,
      "wykła": 6265,
      "dawać": 6266,
      "mawiał": 6267,
      "odź": 6268,
      "czuje": 6269,
      "krokiem": 6270,
      "stanowie": 6271,
      "okolicz": 6272,
      "zdołał": 6273,
      "stanowią": 6274,
      "hono": 6275,
      "bladł": 6276,
      "blasku": 6277,
      "Krzysia": 6278,
      "określa": 6279,
      "sędzi": 6280,
      "jeżdżał": 6281,
      "przyszłość": 6282,
      "zawiera": 6283,
      "krzywdy": 6284,
      "bogini": 6285,
      "mężczyzn": 6286,
      "kościele": 6287,
      "Sędzia": 6288,
      "anali": 6289,
      "abym": 6290,
      "ksy": 6291,
      "mowała": 6292,
      "uchy": 6293,
      "vel": 6294,
      "zle": 6295,
      "koszu": 6296,
      "kanie": 6297,
      "wiło": 6298,
      "wyglądał": 6299,
      "dziu": 6300,
      "przysłu": 6301,
      "pusto": 6302,
      "dzonych": 6303,
      "Starski": 6304,
      "krok": 6305,
      "większej": 6306,
      "sprawo": 6307,
      "przedstawia": 6308,
      "świątyń": 6309,
      "prezenta": 6310,
      "rozporzą": 6311,
      "Sapieha": 6312,
      "Spychowa": 6313,
      "Bur": 6314,
      "Towarzy": 6315,
      "Ukrai": 6316,
      "ilu": 6317,
      "psa": 6318,
      "pały": 6319,
      "usiadł": 6320,
      "człe": 6321,
      "zaw": 6322,
      "zacie": 6323,
      "widzenia": 6324,
      "wiemy": 6325,
      "wodza": 6326,
      "rezu": 6327,
      "piej": 6328,
      "weszli": 6329,
      "prosta": 6330,
      "trzeź": 6331,
      "byłaby": 6332,
      "Jutro": 6333,
      "pływa": 6334,
      "Wier": 6335,
      "zmienia": 6336,
      "niechże": 6337,
      "kowskiego": 6338,
      "wskazu": 6339,
      "skończył": 6340,
      "uczucia": 6341,
      "wyjdzie": 6342,
      "spodziewał": 6343,
      "członków": 6344,
      "pułkownik": 6345,
      "psycho": 6346,
      "szpitala": 6347,
      "materiał": 6348,
      "repti": 6349,
      "27": 6350,
      "Ban": 6351,
      "For": 6352,
      "Twa": 6353,
      "nóż": 6354,
      "naczy": 6355,
      "niedaleko": 6356,
      "zazdro": 6357,
      "waszych": 6358,
      "wynagro": 6359,
      "ciep": 6360,
      "przysią": 6361,
      "rozsze": 6362,
      "pek": 6363,
      "pełen": 6364,
      "stronach": 6365,
      "Szko": 6366,
      "Szczy": 6367,
      "ojcze": 6368,
      "działalność": 6369,
      "195": 6370,
      "lepsze": 6371,
      "Noc": 6372,
      "pracować": 6373,
      "powinny": 6374,
      "białą": 6375,
      "Kilka": 6376,
      "Ksiądz": 6377,
      "chmur": 6378,
      "nazwiska": 6379,
      "Komisji": 6380,
      "charakter": 6381,
      "baronowa": 6382,
      "Zygfry": 6383,
      "abso": 6384,
      "sobotę": 6385,
      "ami": 6386,
      "ppe": 6387,
      "wców": 6388,
      "zować": 6389,
      "nasta": 6390,
      "niezależ": 6391,
      "szkę": 6392,
      "zakry": 6393,
      "tech": 6394,
      "wanych": 6395,
      "typu": 6396,
      "przerywa": 6397,
      "murów": 6398,
      "bacz": 6399,
      "żynie": 6400,
      "biegu": 6401,
      "stoli": 6402,
      "Zaś": 6403,
      "kłam": 6404,
      "ziar": 6405,
      "międzynarod": 6406,
      "młodzień": 6407,
      "dowci": 6408,
      "pracował": 6409,
      "ludzkiej": 6410,
      "Michała": 6411,
      "służba": 6412,
      "klęski": 6413,
      "sierpnia": 6414,
      "zamiar": 6415,
      "głowami": 6416,
      "Prezy": 6417,
      "talentów": 6418,
      "istnieje": 6419,
      "niewiasty": 6420,
      "ojczyźnie": 6421,
      "Longinus": 6422,
      "21": 6423,
      "Tłu": 6424,
      "es": 6425,
      "gały": 6426,
      "gnę": 6427,
      "Ło": 6428,
      "niestety": 6429,
      "stemu": 6430,
      "miła": 6431,
      "dane": 6432,
      "lauda": 6433,
      "czycy": 6434,
      "mara": 6435,
      "piel": 6436,
      "wezwa": 6437,
      "sieci": 6438,
      "subie": 6439,
      "Zamo": 6440,
      "mówiłem": 6441,
      "pierś": 6442,
      "rowania": 6443,
      "łez": 6444,
      "mieszał": 6445,
      "ojc": 6446,
      "ojcem": 6447,
      "musimy": 6448,
      "196": 6449,
      "rozumiesz": 6450,
      "godzina": 6451,
      "obiecał": 6452,
      "chciałbym": 6453,
      "włosów": 6454,
      "uderza": 6455,
      "szepnęła": 6456,
      "komunika": 6457,
      "warunki": 6458,
      "28": 6459,
      "Ję": 6460,
      "Wsze": 6461,
      "klo": 6462,
      "twego": 6463,
      "uło": 6464,
      "zma": 6465,
      "zgrzy": 6466,
      "szała": 6467,
      "ramach": 6468,
      "jenerał": 6469,
      "zapad": 6470,
      "teo": 6471,
      "żeć": 6472,
      "wyści": 6473,
      "wydało": 6474,
      "czyków": 6475,
      "kupu": 6476,
      "bal": 6477,
      "rozbi": 6478,
      "Tatar": 6479,
      "impe": 6480,
      "resztę": 6481,
      "książęcej": 6482,
      "zdawał": 6483,
      "zmienił": 6484,
      "ratura": 6485,
      "cjon": 6486,
      "nagrody": 6487,
      "programu": 6488,
      "Geb": 6489,
      "wieczor": 6490,
      "wstyd": 6491,
      "drzwiami": 6492,
      "Łub": 6493,
      "Bro": 6494,
      "Gi": 6495,
      "Min": 6496,
      "Mało": 6497,
      "Rów": 6498,
      "nty": 6499,
      "chrz": 6500,
      "pozostały": 6501,
      "stia": 6502,
      "jeńców": 6503,
      "zasię": 6504,
      "wyczer": 6505,
      "wysłał": 6506,
      "wodo": 6507,
      "rety": 6508,
      "ruchem": 6509,
      "spotyka": 6510,
      "skier": 6511,
      "armii": 6512,
      "Naprzód": 6513,
      "powierz": 6514,
      "budzi": 6515,
      "płacić": 6516,
      "Kamie": 6517,
      "szkole": 6518,
      "Byli": 6519,
      "podobnego": 6520,
      "złowro": 6521,
      "płomień": 6522,
      "polega": 6523,
      "kręcił": 6524,
      "decyzji": 6525,
      "Hen": 6526,
      "potrzebne": 6527,
      "gorzeli": 6528,
      "zastana": 6529,
      "pracuje": 6530,
      "oficerowie": 6531,
      "błyskawi": 6532,
      "Wro": 6533,
      "Związ": 6534,
      "sprzed": 6535,
      "ukło": 6536,
      "owni": 6537,
      "kome": 6538,
      "lesie": 6539,
      "kap": 6540,
      "kując": 6541,
      "chodzę": 6542,
      "chwil": 6543,
      "siadła": 6544,
      "królem": 6545,
      "Widać": 6546,
      "pewną": 6547,
      "Moja": 6548,
      "Były": 6549,
      "Przyj": 6550,
      "godzinie": 6551,
      "eks": 6552,
      "bólu": 6553,
      "korzysta": 6554,
      "powinno": 6555,
      "długim": 6556,
      "kawaler": 6557,
      "wszędy": 6558,
      "Długo": 6559,
      "sekreta": 6560,
      "Rzeczpospolita": 6561,
      "Szlangbaum": 6562,
      "Znowu": 6563,
      "bała": 6564,
      "fię": 6565,
      "ly": 6566,
      "płu": 6567,
      "ssa": 6568,
      "sprzeci": 6569,
      "uniesie": 6570,
      "porze": 6571,
      "poby": 6572,
      "poły": 6573,
      "pode": 6574,
      "poprzez": 6575,
      "les": 6576,
      "wypyty": 6577,
      "wozów": 6578,
      "odbi": 6579,
      "miesię": 6580,
      "silnie": 6581,
      "przywiąza": 6582,
      "czają": 6583,
      "podnieść": 6584,
      "log": 6585,
      "czom": 6586,
      "będziem": 6587,
      "wielmoż": 6588,
      "swobod": 6589,
      "reszty": 6590,
      "Tere": 6591,
      "formu": 6592,
      "zostaną": 6593,
      "chłopi": 6594,
      "drzewo": 6595,
      "dziećmi": 6596,
      "Gdybym": 6597,
      "płoną": 6598,
      "uciekł": 6599,
      "Krzywo": 6600,
      "ktual": 6601,
      "poniedział": 6602,
      "wszelkich": 6603,
      "Kir": 6604,
      "Europy": 6605,
      "świetle": 6606,
      "tajemni": 6607,
      "Francu": 6608,
      "zapomniał": 6609,
      "regular": 6610,
      "Który": 6611,
      "Krzysztof": 6612,
      "otwiera": 6613,
      "Charłamp": 6614,
      "Kwa": 6615,
      "Młody": 6616,
      "ON": 6617,
      "Pru": 6618,
      "źród": 6619,
      "roczy": 6620,
      "zabój": 6621,
      "łaskę": 6622,
      "waha": 6623,
      "tygod": 6624,
      "dzikich": 6625,
      "dywał": 6626,
      "silniej": 6627,
      "gam": 6628,
      "dusze": 6629,
      "chan": 6630,
      "anga": 6631,
      "najgor": 6632,
      "słabo": 6633,
      "Tauro": 6634,
      "Marusze": 6635,
      "cjami": 6636,
      "rzucał": 6637,
      "góż": 6638,
      "Ledwie": 6639,
      "Komu": 6640,
      "wargi": 6641,
      "ciągnąć": 6642,
      "huk": 6643,
      "darł": 6644,
      "dowany": 6645,
      "Podbi": 6646,
      "wrócili": 6647,
      "zabił": 6648,
      "Mieszka": 6649,
      "opieku": 6650,
      "Wielki": 6651,
      "zamierza": 6652,
      "kwiaty": 6653,
      "Rzym": 6654,
      "oblicze": 6655,
      "oświadczył": 6656,
      "Póź": 6657,
      "błąd": 6658,
      "26": 6659,
      "brzę": 6660,
      "ger": 6661,
      "kwo": 6662,
      "ulu": 6663,
      "nazajutrz": 6664,
      "naokół": 6665,
      "nieniem": 6666,
      "nisko": 6667,
      "linii": 6668,
      "zamor": 6669,
      "kochać": 6670,
      "wisi": 6671,
      "wiona": 6672,
      "woły": 6673,
      "odpowiadał": 6674,
      "pieśń": 6675,
      "spoglądał": 6676,
      "chaty": 6677,
      "mówiono": 6678,
      "czonej": 6679,
      "sławie": 6680,
      "ris": 6681,
      "wielbłą": 6682,
      "bronił": 6683,
      "genera": 6684,
      "Anna": 6685,
      "święta": 6686,
      "pamiętał": 6687,
      "nosiły": 6688,
      "uciekać": 6689,
      "starych": 6690,
      "zabić": 6691,
      "spotkania": 6692,
      "ogromny": 6693,
      "produkcji": 6694,
      "tmosfe": 6695,
      "Myślę": 6696,
      "lipca": 6697,
      "gabine": 6698,
      "WA": 6699,
      "are": 6700,
      "dnego": 6701,
      "gl": 6702,
      "lla": 6703,
      "ncji": 6704,
      "ory": 6705,
      "sowi": 6706,
      "zmian": 6707,
      "rola": 6708,
      "dor": 6709,
      "widowi": 6710,
      "tany": 6711,
      "jami": 6712,
      "paru": 6713,
      "wyciąga": 6714,
      "przepa": 6715,
      "przemy": 6716,
      "machu": 6717,
      "ceny": 6718,
      "kuchni": 6719,
      "staran": 6720,
      "cono": 6721,
      "żyłem": 6722,
      "życiem": 6723,
      "defi": 6724,
      "rozpoczął": 6725,
      "biec": 6726,
      "czących": 6727,
      "ogród": 6728,
      "nionym": 6729,
      "niosło": 6730,
      "twoich": 6731,
      "rzuciła": 6732,
      "czarny": 6733,
      "minist": 6734,
      "królewskiej": 6735,
      "dowiedział": 6736,
      "wartość": 6737,
      "dodatku": 6738,
      "połowy": 6739,
      "niebezpieczeństwo": 6740,
      "Trudno": 6741,
      "Hitchcock": 6742,
      "pomóc": 6743,
      "ekonomi": 6744,
      "Spraw": 6745,
      "Zosta": 6746,
      "ape": 6747,
      "oże": 6748,
      "opowiadać": 6749,
      "pki": 6750,
      "spło": 6751,
      "wle": 6752,
      "wbrew": 6753,
      "św": 6754,
      "porę": 6755,
      "tacji": 6756,
      "wymia": 6757,
      "dano": 6758,
      "ryt": 6759,
      "przestra": 6760,
      "przeraź": 6761,
      "dyscypli": 6762,
      "sal": 6763,
      "rozmów": 6764,
      "zej": 6765,
      "bieda": 6766,
      "podję": 6767,
      "zdrów": 6768,
      "Tyle": 6769,
      "rzędzie": 6770,
      "chciało": 6771,
      "zmienić": 6772,
      "nerw": 6773,
      "glądali": 6774,
      "wysoki": 6775,
      "Czas": 6776,
      "zgody": 6777,
      "Egipcie": 6778,
      "centrum": 6779,
      "komnaty": 6780,
      "potrzebuje": 6781,
      "Podbipię": 6782,
      "Nale": 6783,
      "Ojcie": 6784,
      "anio": 6785,
      "rię": 6786,
      "usił": 6787,
      "chowski": 6788,
      "wor": 6789,
      "dania": 6790,
      "odczu": 6791,
      "ściga": 6792,
      "mun": 6793,
      "boję": 6794,
      "dekla": 6795,
      "ari": 6796,
      "najpierw": 6797,
      "słoni": 6798,
      "małej": 6799,
      "kulba": 6800,
      "nieboszczy": 6801,
      "Augu": 6802,
      "słuszność": 6803,
      "Krakowa": 6804,
      "chleba": 6805,
      "okrzyki": 6806,
      "tytuł": 6807,
      "dwudziestu": 6808,
      "Ojciec": 6809,
      "Zgorzeli": 6810,
      "cowi": 6811,
      "dwoje": 6812,
      "lda": 6813,
      "pl": 6814,
      "napi": 6815,
      "liwszy": 6816,
      "zago": 6817,
      "zasła": 6818,
      "wypoczy": 6819,
      "ryb": 6820,
      "przesu": 6821,
      "stanęła": 6822,
      "podle": 6823,
      "owicza": 6824,
      "synem": 6825,
      "systemu": 6826,
      "gdym": 6827,
      "długą": 6828,
      "skute": 6829,
      "prowadzenia": 6830,
      "przyjaź": 6831,
      "własny": 6832,
      "trybu": 6833,
      "Marszał": 6834,
      "diabeł": 6835,
      "spojrzenia": 6836,
      "zgoła": 6837,
      "Bogusława": 6838,
      "budowy": 6839,
      "Solidar": 6840,
      "skórę": 6841,
      "stryj": 6842,
      "firma": 6843,
      "poważnie": 6844,
      "tygodnie": 6845,
      "kolor": 6846,
      "wtóre": 6847,
      "Zoba": 6848,
      "atmosfe": 6849,
      "jne": 6850,
      "orę": 6851,
      "upraw": 6852,
      "układ": 6853,
      "napisał": 6854,
      "pomi": 6855,
      "dztwo": 6856,
      "tyj": 6857,
      "woź": 6858,
      "danych": 6859,
      "odrę": 6860,
      "cien": 6861,
      "dymu": 6862,
      "przywie": 6863,
      "szele": 6864,
      "rozdzie": 6865,
      "pust": 6866,
      "rowany": 6867,
      "ziono": 6868,
      "som": 6869,
      "droż": 6870,
      "grom": 6871,
      "Wielko": 6872,
      "ustawi": 6873,
      "podobnie": 6874,
      "samochód": 6875,
      "chcecie": 6876,
      "miałam": 6877,
      "kocham": 6878,
      "morder": 6879,
      "obecnych": 6880,
      "możliwość": 6881,
      "zdumieniem": 6882,
      "obowiąza": 6883,
      "dobrej": 6884,
      "krajów": 6885,
      "Mówił": 6886,
      "Spoj": 6887,
      "kancle": 6888,
      "wystarczy": 6889,
      "obywatel": 6890,
      "zrozumieć": 6891,
      "Mentezufis": 6892,
      "Skar": 6893,
      "płó": 6894,
      "włą": 6895,
      "narodu": 6896,
      "popeł": 6897,
      "strą": 6898,
      "rocznie": 6899,
      "rzej": 6900,
      "dosię": 6901,
      "tatu": 6902,
      "jazda": 6903,
      "dziecię": 6904,
      "odparła": 6905,
      "boży": 6906,
      "prace": 6907,
      "Poz": 6908,
      "nioną": 6909,
      "Wit": 6910,
      "prowadzenie": 6911,
      "dium": 6912,
      "trwało": 6913,
      "gniewem": 6914,
      "grunt": 6915,
      "ciemno": 6916,
      "wemu": 6917,
      "dziękuję": 6918,
      "ratunku": 6919,
      "służbę": 6920,
      "strzały": 6921,
      "Egipcja": 6922,
      "zginąć": 6923,
      "szeregi": 6924,
      "chmury": 6925,
      "trakcie": 6926,
      "województwa": 6927,
      "opera": 6928,
      "Wąsowska": 6929,
      "zwłoki": 6930,
      "Benedy": 6931,
      "29": 6932,
      "DZ": 6933,
      "kwar": 6934,
      "scho": 6935,
      "snym": 6936,
      "ut": 6937,
      "złem": 6938,
      "niegdzie": 6939,
      "kając": 6940,
      "nogą": 6941,
      "ryba": 6942,
      "przywy": 6943,
      "boki": 6944,
      "pragnął": 6945,
      "biry": 6946,
      "rozstrzy": 6947,
      "wiarę": 6948,
      "podwó": 6949,
      "panną": 6950,
      "stolicy": 6951,
      "senato": 6952,
      "czące": 6953,
      "braku": 6954,
      "guje": 6955,
      "myślała": 6956,
      "słyszę": 6957,
      "samemu": 6958,
      "lubię": 6959,
      "złoty": 6960,
      "odpowiedzieć": 6961,
      "ciągnie": 6962,
      "księciem": 6963,
      "mniejsze": 6964,
      "głosowania": 6965,
      "obawy": 6966,
      "pokor": 6967,
      "grudnia": 6968,
      "krzesła": 6969,
      "mieszkanie": 6970,
      "walce": 6971,
      "lepszy": 6972,
      "bywają": 6973,
      "palce": 6974,
      "kazując": 6975,
      "Dzień": 6976,
      "prowadziła": 6977,
      "AWS": 6978,
      "Cały": 6979,
      "Ger": 6980,
      "Ile": 6981,
      "Kt": 6982,
      "Ofi": 6983,
      "Wz": 6984,
      "lskiemu": 6985,
      "mode": 6986,
      "opat": 6987,
      "tno": 6988,
      "wszak": 6989,
      "Ża": 6990,
      "czku": 6991,
      "poję": 6992,
      "ramieniu": 6993,
      "liny": 6994,
      "rozwoju": 6995,
      "skimi": 6996,
      "gia": 6997,
      "Chodź": 6998,
      "impre": 6999,
      "straży": 7000,
      "czuję": 7001,
      "śnieg": 7002,
      "dników": 7003,
      "fakt": 7004,
      "dźmy": 7005,
      "żołnierza": 7006,
      "mieszkańcy": 7007,
      "klasztor": 7008,
      "Więk": 7009,
      "polityki": 7010,
      "Najświęt": 7011,
      "telefon": 7012,
      "dobrych": 7013,
      "uczuł": 7014,
      "bezpieczeństwa": 7015,
      "berg": 7016,
      "Europie": 7017,
      "warunkach": 7018,
      "Kozacy": 7019,
      "przestrzeni": 7020,
      "września": 7021,
      "Kościo": 7022,
      "Jesteś": 7023,
      "Któż": 7024,
      "Kan": 7025,
      "Lo": 7026,
      "Zbi": 7027,
      "Zale": 7028,
      "kłu": 7029,
      "niało": 7030,
      "likwi": 7031,
      "wyniku": 7032,
      "mary": 7033,
      "dyplo": 7034,
      "przyjąć": 7035,
      "rozpoczę": 7036,
      "rękami": 7037,
      "władze": 7038,
      "brali": 7039,
      "sąsie": 7040,
      "Rosji": 7041,
      "Mil": 7042,
      "żebyś": 7043,
      "zostaje": 7044,
      "małą": 7045,
      "zawoła": 7046,
      "polska": 7047,
      "PiS": 7048,
      "Bogiem": 7049,
      "fotelu": 7050,
      "produk": 7051,
      "spółki": 7052,
      "Eury": 7053,
      "obyczaj": 7054,
      "Słysz": 7055,
      "słyszeli": 7056,
      "poczucie": 7057,
      "cjonari": 7058,
      "handlu": 7059,
      "Bogdańca": 7060,
      "kapitał": 7061,
      "rezulta": 7062,
      "Gie": 7063,
      "Gusta": 7064,
      "Ich": 7065,
      "NIE": 7066,
      "mle": 7067,
      "nna": 7068,
      "onych": 7069,
      "żąc": 7070,
      "nieszczęśli": 7071,
      "potrzą": 7072,
      "kop": 7073,
      "prawej": 7074,
      "roztrop": 7075,
      "słem": 7076,
      "Toteż": 7077,
      "Wiśni": 7078,
      "dawne": 7079,
      "hau": 7080,
      "znajdują": 7081,
      "nkowie": 7082,
      "odez": 7083,
      "słowach": 7084,
      "ludzka": 7085,
      "dziwnie": 7086,
      "małym": 7087,
      "Chociaż": 7088,
      "zwycięstwa": 7089,
      "dziewczynę": 7090,
      "gorącz": 7091,
      "Helena": 7092,
      "Zygmu": 7093,
      "Małgo": 7094,
      "jeźdźców": 7095,
      "codziennie": 7096,
      "klejno": 7097,
      "Mel": 7098,
      "Zjedno": 7099,
      "bki": 7100,
      "ss": 7101,
      "tchu": 7102,
      "uma": 7103,
      "zon": 7104,
      "chowy": 7105,
      "pobi": 7106,
      "roman": 7107,
      "rosną": 7108,
      "jesie": 7109,
      "kość": 7110,
      "lekar": 7111,
      "patro": 7112,
      "rewolu": 7113,
      "cieszy": 7114,
      "sześciu": 7115,
      "bać": 7116,
      "pij": 7117,
      "duszą": 7118,
      "mecha": 7119,
      "Nastała": 7120,
      "kłę": 7121,
      "sławy": 7122,
      "żonego": 7123,
      "ciąć": 7124,
      "rowane": 7125,
      "płacz": 7126,
      "wiązek": 7127,
      "grać": 7128,
      "pewność": 7129,
      "złożyć": 7130,
      "formie": 7131,
      "trwał": 7132,
      "Anzel": 7133,
      "rodziców": 7134,
      "patrzyła": 7135,
      "pisarz": 7136,
      "wydawał": 7137,
      "pięknie": 7138,
      "ludzką": 7139,
      "towarzystwie": 7140,
      "właściciel": 7141,
      "związane": 7142,
      "wstrę": 7143,
      "załat": 7144,
      "powierzchni": 7145,
      "Han": 7146,
      "gała": 7147,
      "grywa": 7148,
      "tór": 7149,
      "uzasa": 7150,
      "wcy": 7151,
      "ńsku": 7152,
      "naty": 7153,
      "napisa": 7154,
      "chła": 7155,
      "pokazał": 7156,
      "owszem": 7157,
      "rzeczą": 7158,
      "zao": 7159,
      "zastrze": 7160,
      "tara": 7161,
      "kin": 7162,
      "wynik": 7163,
      "dama": 7164,
      "kula": 7165,
      "czasami": 7166,
      "dur": 7167,
      "wojsku": 7168,
      "konty": 7169,
      "dencji": 7170,
      "Lepiej": 7171,
      "towania": 7172,
      "płyną": 7173,
      "pręd": 7174,
      "ślady": 7175,
      "telef": 7176,
      "wzięli": 7177,
      "południa": 7178,
      "Słuchaj": 7179,
      "stosunku": 7180,
      "wydobył": 7181,
      "poczci": 7182,
      "biskup": 7183,
      "ochrony": 7184,
      "Idrys": 7185,
      "CK": 7186,
      "fro": 7187,
      "plą": 7188,
      "zno": 7189,
      "zwró": 7190,
      "dzki": 7191,
      "rośnie": 7192,
      "liści": 7193,
      "wydawało": 7194,
      "dziłem": 7195,
      "mane": 7196,
      "oddali": 7197,
      "mono": 7198,
      "stawał": 7199,
      "siód": 7200,
      "przytu": 7201,
      "przyszli": 7202,
      "boja": 7203,
      "biała": 7204,
      "podwój": 7205,
      "niejsi": 7206,
      "Nieraz": 7207,
      "najprędzej": 7208,
      "cudow": 7209,
      "pierście": 7210,
      "Mamy": 7211,
      "premier": 7212,
      "Czym": 7213,
      "umowy": 7214,
      "Libij": 7215,
      "dziane": 7216,
      "świętego": 7217,
      "gnał": 7218,
      "szczyt": 7219,
      "Daw": 7220,
      "Żydzi": 7221,
      "Gospo": 7222,
      "komisa": 7223,
      "Dzieci": 7224,
      "Sopli": 7225,
      "biorą": 7226,
      "filmu": 7227,
      "trudności": 7228,
      "informacje": 7229,
      "Kozaków": 7230,
      "próbował": 7231,
      "Policja": 7232,
      "Telemach": 7233,
      "Akte": 7234,
      "całkowicie": 7235,
      "Try": 7236,
      "nnej": 7237,
      "niezbyt": 7238,
      "posił": 7239,
      "zabiera": 7240,
      "zamyślił": 7241,
      "lecie": 7242,
      "miony": 7243,
      "ładnie": 7244,
      "pacje": 7245,
      "odby": 7246,
      "mul": 7247,
      "dentów": 7248,
      "konsek": 7249,
      "Dość": 7250,
      "Wielu": 7251,
      "Być": 7252,
      "umrzeć": 7253,
      "gardło": 7254,
      "walić": 7255,
      "Kukli": 7256,
      "Danvel": 7257,
      "Korde": 7258,
      "ochotę": 7259,
      "prokura": 7260,
      "Ursus": 7261,
      "dywidu": 7262,
      "70": 7263,
      "Di": 7264,
      "PZ": 7265,
      "knąć": 7266,
      "odz": 7267,
      "towych": 7268,
      "unik": 7269,
      "umysł": 7270,
      "wkę": 7271,
      "zwro": 7272,
      "nazwa": 7273,
      "nigdzie": 7274,
      "jemnie": 7275,
      "kos": 7276,
      "kapli": 7277,
      "byście": 7278,
      "wychodzi": 7279,
      "wyrok": 7280,
      "mont": 7281,
      "stanąć": 7282,
      "stanęli": 7283,
      "mieczem": 7284,
      "sadza": 7285,
      "wiając": 7286,
      "owicie": 7287,
      "lom": 7288,
      "cham": 7289,
      "Macie": 7290,
      "świade": 7291,
      "drudzy": 7292,
      "krzyczeć": 7293,
      "słońcu": 7294,
      "ważnie": 7295,
      "wejść": 7296,
      "szonym": 7297,
      "lepszego": 7298,
      "stanowiska": 7299,
      "honor": 7300,
      "Podla": 7301,
      "powiedziałem": 7302,
      "Muszę": 7303,
      "Inter": 7304,
      "zbrodni": 7305,
      "zmem": 7306,
      "gromady": 7307,
      "największą": 7308,
      "największym": 7309,
      "dodatk": 7310,
      "dobrodziej": 7311,
      "zakresie": 7312,
      "popular": 7313,
      "kowo": 7314,
      "oszu": 7315,
      "uspo": 7316,
      "usługi": 7317,
      "ułat": 7318,
      "ownie": 7319,
      "rot": 7320,
      "rzeka": 7321,
      "zastos": 7322,
      "don": 7323,
      "wyszli": 7324,
      "masze": 7325,
      "majda": 7326,
      "boska": 7327,
      "zewnątrz": 7328,
      "znaki": 7329,
      "znane": 7330,
      "pytam": 7331,
      "siąść": 7332,
      "ogniu": 7333,
      "czonego": 7334,
      "ciach": 7335,
      "Wojcie": 7336,
      "czuć": 7337,
      "soli": 7338,
      "fabe": 7339,
      "lskim": 7340,
      "słycha": 7341,
      "bronią": 7342,
      "Lub": 7343,
      "głębie": 7344,
      "rozmawiał": 7345,
      "ostatniego": 7346,
      "liczba": 7347,
      "zamiesza": 7348,
      "Anusia": 7349,
      "niespodzianie": 7350,
      "premiera": 7351,
      "Chwilami": 7352,
      "śmiać": 7353,
      "90": 7354,
      "Aha": 7355,
      "Dal": 7356,
      "Stu": 7357,
      "Tę": 7358,
      "Zd": 7359,
      "nkami": 7360,
      "zgła": 7361,
      "napis": 7362,
      "niewy": 7363,
      "zabrać": 7364,
      "koali": 7365,
      "domo": 7366,
      "waniem": 7367,
      "lasach": 7368,
      "przeło": 7369,
      "przemysł": 7370,
      "kule": 7371,
      "przywo": 7372,
      "zen": 7373,
      "jutrze": 7374,
      "bierz": 7375,
      "pens": 7376,
      "niejszej": 7377,
      "skając": 7378,
      "czoła": 7379,
      "wojskiem": 7380,
      "Widziałem": 7381,
      "kazały": 7382,
      "marca": 7383,
      "szkoda": 7384,
      "walkę": 7385,
      "majątku": 7386,
      "dłonią": 7387,
      "znalazła": 7388,
      "współczes": 7389,
      "rencji": 7390,
      "miłościwy": 7391,
      "szwedzkie": 7392,
      "gwiazd": 7393,
      "centra": 7394,
      "realizacji": 7395,
      "funda": 7396,
      "uważał": 7397,
      "osiąg": 7398,
      "Rober": 7399,
      "))": 7400,
      "Fun": 7401,
      "Gór": 7402,
      "Idź": 7403,
      "Zdr": 7404,
      "upa": 7405,
      "usług": 7406,
      "yhm": 7407,
      "pot": 7408,
      "pokło": 7409,
      "pochodzą": 7410,
      "racze": 7411,
      "tana": 7412,
      "nozd": 7413,
      "rym": 7414,
      "lając": 7415,
      "latar": 7416,
      "owanego": 7417,
      "objął": 7418,
      "przyniósł": 7419,
      "piła": 7420,
      "znany": 7421,
      "szaty": 7422,
      "pen": 7423,
      "synów": 7424,
      "chali": 7425,
      "argu": 7426,
      "powietrza": 7427,
      "burzy": 7428,
      "równy": 7429,
      "wzru": 7430,
      "dnicy": 7431,
      "Stan": 7432,
      "Konie": 7433,
      "Rosja": 7434,
      "gęsto": 7435,
      "zostawił": 7436,
      "Wokulskiemu": 7437,
      "święto": 7438,
      "Marta": 7439,
      "środki": 7440,
      "milionów": 7441,
      "rzucając": 7442,
      "westch": 7443,
      "powtarzać": 7444,
      "umarł": 7445,
      "Pięk": 7446,
      "Mikołaj": 7447,
      "tygodniu": 7448,
      "Ost": 7449,
      "Wkrótce": 7450,
      "cko": 7451,
      "sh": 7452,
      "towe": 7453,
      "towej": 7454,
      "niechaj": 7455,
      "jadę": 7456,
      "wyła": 7457,
      "lana": 7458,
      "dzieliśmy": 7459,
      "moty": 7460,
      "mierz": 7461,
      "przykry": 7462,
      "pieczę": 7463,
      "piąc": 7464,
      "rozmyśla": 7465,
      "indywidu": 7466,
      "najpięk": 7467,
      "rowali": 7468,
      "fakty": 7469,
      "pełną": 7470,
      "rządek": 7471,
      "Rada": 7472,
      "świeżo": 7473,
      "wolny": 7474,
      "młode": 7475,
      "pisma": 7476,
      "ruszyła": 7477,
      "godna": 7478,
      "kazali": 7479,
      "obronie": 7480,
      "rzucać": 7481,
      "rozpaczy": 7482,
      "przekonać": 7483,
      "córkę": 7484,
      "wpływem": 7485,
      "matematy": 7486,
      "stopniu": 7487,
      "prowadzono": 7488,
      "okrzyk": 7489,
      "roślin": 7490,
      "Aleksandra": 7491,
      "oddech": 7492,
      "akurat": 7493,
      "Pró": 7494,
      "sona": 7495,
      "trium": 7496,
      "niespokoj": 7497,
      "owską": 7498,
      "zapowiada": 7499,
      "wypada": 7500,
      "odszedł": 7501,
      "dyspo": 7502,
      "ruchy": 7503,
      "żywa": 7504,
      "szabli": 7505,
      "szans": 7506,
      "puste": 7507,
      "orszak": 7508,
      "Zapo": 7509,
      "Zakon": 7510,
      "nti": 7511,
      "czuła": 7512,
      "śmiech": 7513,
      "parcie": 7514,
      "krajach": 7515,
      "konstru": 7516,
      "Stawska": 7517,
      "złość": 7518,
      "Rodzi": 7519,
      "diu": 7520,
      "ciągną": 7521,
      "Byłem": 7522,
      "dziad": 7523,
      "grupa": 7524,
      "całych": 7525,
      "spekty": 7526,
      "nosili": 7527,
      "ziemią": 7528,
      "piasku": 7529,
      "budowę": 7530,
      "Dziew": 7531,
      "obowiązek": 7532,
      "uczuć": 7533,
      "westchnął": 7534,
      "Polacy": 7535,
      "udziału": 7536,
      "Francji": 7537,
      "frag": 7538,
      "policjanci": 7539,
      "modlitwy": 7540,
      "ozwały": 7541,
      "Zbyszkowi": 7542,
      "czambu": 7543,
      "bohater": 7544,
      "szablą": 7545,
      "października": 7546,
      "senator": 7547,
      "DA": 7548,
      "Izra": 7549,
      "Pla": 7550,
      "Pół": 7551,
      "Sma": 7552,
      "Uważa": 7553,
      "ccy": 7554,
      "opad": 7555,
      "usie": 7556,
      "ucał": 7557,
      "zow": 7558,
      "czół": 7559,
      "chó": 7560,
      "niło": 7561,
      "zara": 7562,
      "koty": 7563,
      "lewej": 7564,
      "paty": 7565,
      "wypraw": 7566,
      "czyny": 7567,
      "czyste": 7568,
      "przewa": 7569,
      "kub": 7570,
      "owanym": 7571,
      "obró": 7572,
      "bią": 7573,
      "biur": 7574,
      "żyją": 7575,
      "podpisa": 7576,
      "podnosząc": 7577,
      "ałym": 7578,
      "indziej": 7579,
      "proponu": 7580,
      "skami": 7581,
      "budził": 7582,
      "Jaro": 7583,
      "granic": 7584,
      "nięta": 7585,
      "byłam": 7586,
      "walka": 7587,
      "Biał": 7588,
      "piątek": 7589,
      "spał": 7590,
      "biorąc": 7591,
      "Zeus": 7592,
      "dowiedzieć": 7593,
      "patrzą": 7594,
      "wyjazd": 7595,
      "wniosku": 7596,
      "Rzymu": 7597,
      "księżyca": 7598,
      "dyskusji": 7599,
      "Szczegó": 7600,
      "Obaj": 7601,
      "telewizji": 7602,
      "obiad": 7603,
      "Ameryka": 7604,
      "RP": 7605,
      "epo": 7606,
      "gród": 7607,
      "zją": 7608,
      "zin": 7609,
      "szkół": 7610,
      "poj": 7611,
      "pokazać": 7612,
      "owdzie": 7613,
      "gościa": 7614,
      "zacznie": 7615,
      "dokład": 7616,
      "karze": 7617,
      "wyjeżdża": 7618,
      "wyprawy": 7619,
      "dzikie": 7620,
      "sil": 7621,
      "Napole": 7622,
      "sens": 7623,
      "służył": 7624,
      "słe": 7625,
      "Chrepti": 7626,
      "płaszcz": 7627,
      "Rozło": 7628,
      "mentem": 7629,
      "młoda": 7630,
      "trwały": 7631,
      "jednostki": 7632,
      "głęb": 7633,
      "!”,": 7634,
      "czekając": 7635,
      "chłopca": 7636,
      "skład": 7637,
      "kolejny": 7638,
      "prowadzili": 7639,
      "pozycji": 7640,
      "kontroli": 7641,
      "Cieka": 7642,
      "Pierwsze": 7643,
      "niezmiernie": 7644,
      "wencji": 7645,
      "Kazimierza": 7646,
      "Choćby": 7647,
      "herba": 7648,
      "przykładem": 7649,
      "itp": 7650,
      "okoliczności": 7651,
      "Aj": 7652,
      "Obie": 7653,
      "Prus": 7654,
      "XIII": 7655,
      "foto": 7656,
      "hr": 7657,
      "hry": 7658,
      "idę": 7659,
      "jny": 7660,
      "mno": 7661,
      "wręcz": 7662,
      "zgra": 7663,
      "Ów": 7664,
      "śnią": 7665,
      "śpią": 7666,
      "naro": 7667,
      "napełni": 7668,
      "czno": 7669,
      "potom": 7670,
      "niny": 7671,
      "dodała": 7672,
      "wiec": 7673,
      "wieków": 7674,
      "rysu": 7675,
      "czytel": 7676,
      "przepisy": 7677,
      "czeli": 7678,
      "pina": 7679,
      "róża": 7680,
      "rósł": 7681,
      "znasz": 7682,
      "duchy": 7683,
      "siedzieli": 7684,
      "Poza": 7685,
      "prof": 7686,
      "anu": 7687,
      "ogląd": 7688,
      "Chcę": 7689,
      "barba": 7690,
      "zdjął": 7691,
      "światem": 7692,
      "ląkł": 7693,
      "złoto": 7694,
      "dźwięk": 7695,
      "początek": 7696,
      "Przypom": 7697,
      "ustami": 7698,
      "Zagłobę": 7699,
      "pędził": 7700,
      "placów": 7701,
      "czarow": 7702,
      "Polskiej": 7703,
      "przyjaciela": 7704,
      "Instytu": 7705,
      "szeptał": 7706,
      "publicznych": 7707,
      "zapach": 7708,
      "kolejne": 7709,
      "zwycięz": 7710,
      "chleb": 7711,
      "zdrajca": 7712,
      "wielkości": 7713,
      "głąb": 7714,
      "gałęzi": 7715,
      "Twarz": 7716,
      "Azji": 7717,
      "Bel": 7718,
      "Rę": 7719,
      "Sąd": 7720,
      "Słowa": 7721,
      "ozdo": 7722,
      "rie": 7723,
      "twej": 7724,
      "umożli": 7725,
      "wnu": 7726,
      "podzię": 7727,
      "poszczegó": 7728,
      "cisz": 7729,
      "wyba": 7730,
      "dzią": 7731,
      "nosa": 7732,
      "ryzy": 7733,
      "rezer": 7734,
      "malu": 7735,
      "silne": 7736,
      "przyznać": 7737,
      "delega": 7738,
      "szabel": 7739,
      "mięsa": 7740,
      "alnych": 7741,
      "skoczy": 7742,
      "sławę": 7743,
      "dzeni": 7744,
      "Stawskiej": 7745,
      "abyś": 7746,
      "chęci": 7747,
      "drapie": 7748,
      "drżą": 7749,
      "Biało": 7750,
      "Myśli": 7751,
      "zajmuje": 7752,
      "renty": 7753,
      "powagą": 7754,
      "Radziwiłła": 7755,
      "charaktery": 7756,
      "waszmościowie": 7757,
      "choroby": 7758,
      "zwracając": 7759,
      "Jednocześnie": 7760,
      "Sakowicz": 7761,
      "Sko": 7762,
      "Wnet": 7763,
      "bnie": 7764,
      "pkt": 7765,
      "żnych": 7766,
      "niedługo": 7767,
      "niesłycha": 7768,
      "pochodzi": 7769,
      "goście": 7770,
      "waria": 7771,
      "torzy": 7772,
      "czyźni": 7773,
      "dziemy": 7774,
      "maję": 7775,
      "odci": 7776,
      "oddy": 7777,
      "obrazy": 7778,
      "przymie": 7779,
      "conych": 7780,
      "lubił": 7781,
      "życ": 7782,
      "póty": 7783,
      "stycznych": 7784,
      "bramą": 7785,
      "blio": 7786,
      "śmiejąc": 7787,
      "waćpana": 7788,
      "granicą": 7789,
      "każdemu": 7790,
      "Panu": 7791,
      "trwała": 7792,
      "000": 7793,
      "kobietę": 7794,
      "domem": 7795,
      "mężów": 7796,
      "Soroka": 7797,
      "chrześcijan": 7798,
      "Petroniusza": 7799,
      "rozpoczyna": 7800,
      "dzierża": 7801,
      "punktu": 7802,
      "umilkł": 7803,
      "folwar": 7804,
      "angaż": 7805,
      "Później": 7806,
      "Fau": 7807,
      "Ly": 7808,
      "Mracze": 7809,
      "Nim": 7810,
      "wce": 7811,
      "wchodzi": 7812,
      "ślą": 7813,
      "nadej": 7814,
      "szwa": 7815,
      "pochwy": 7816,
      "niły": 7817,
      "dości": 7818,
      "jacy": 7819,
      "tona": 7820,
      "dziwa": 7821,
      "dziale": 7822,
      "mogi": 7823,
      "kupił": 7824,
      "szyli": 7825,
      "obda": 7826,
      "mus": 7827,
      "basa": 7828,
      "inżynie": 7829,
      "głosie": 7830,
      "Jaka": 7831,
      "studen": 7832,
      "Tyś": 7833,
      "płynął": 7834,
      "karie": 7835,
      "cyjna": 7836,
      "spadł": 7837,
      "Szwedom": 7838,
      "hen": 7839,
      "służb": 7840,
      "opiekę": 7841,
      "Labiry": 7842,
      "sytuacja": 7843,
      "napast": 7844,
      "Memfi": 7845,
      "Wojewódz": 7846,
      "Fo": 7847,
      "Lich": 7848,
      "Ozy": 7849,
      "bny": 7850,
      "hał": 7851,
      "ili": 7852,
      "ochło": 7853,
      "opoda": 7854,
      "twych": 7855,
      "ww": 7856,
      "niewie": 7857,
      "cznością": 7858,
      "powy": 7859,
      "zatrzymy": 7860,
      "katego": 7861,
      "żeśmy": 7862,
      "nety": 7863,
      "pacie": 7864,
      "przechy": 7865,
      "cenę": 7866,
      "cyr": 7867,
      "zezna": 7868,
      "Por": 7869,
      "miary": 7870,
      "bezrobo": 7871,
      "kraty": 7872,
      "pewnych": 7873,
      "myśląc": 7874,
      "kroku": 7875,
      "większym": 7876,
      "termi": 7877,
      "gdybyś": 7878,
      "mowali": 7879,
      "ostatnio": 7880,
      "ludność": 7881,
      "stosunki": 7882,
      "potrafił": 7883,
      "prywaty": 7884,
      "większości": 7885,
      "niesiono": 7886,
      "ostrożnie": 7887,
      "rzeczywistości": 7888,
      "środowiska": 7889,
      "dolarów": 7890,
      "Człowiek": 7891,
      "poniedziałek": 7892,
      "??": 7893,
      "Cała": 7894,
      "Dia": 7895,
      "Nowa": 7896,
      "Znaj": 7897,
      "gda": 7898,
      "snę": 7899,
      "zwia": 7900,
      "zgodzi": 7901,
      "naby": 7902,
      "niesio": 7903,
      "winien": 7904,
      "papiero": 7905,
      "pamią": 7906,
      "przebra": 7907,
      "cielem": 7908,
      "mocą": 7909,
      "siod": 7910,
      "bogom": 7911,
      "biony": 7912,
      "gania": 7913,
      "piwa": 7914,
      "podjazd": 7915,
      "siedziała": 7916,
      "sypi": 7917,
      "lotni": 7918,
      "szczem": 7919,
      "Jedy": 7920,
      "władza": 7921,
      "nume": 7922,
      "bramę": 7923,
      "nionej": 7924,
      "giego": 7925,
      "złoci": 7926,
      "ciągnęła": 7927,
      "terro": 7928,
      "zdarza": 7929,
      "ostatecznie": 7930,
      "chcemy": 7931,
      "szość": 7932,
      "gruby": 7933,
      "cyjnym": 7934,
      "kilkudziesięciu": 7935,
      "godności": 7936,
      "zwierz": 7937,
      "zwierza": 7938,
      "dalszych": 7939,
      "palcami": 7940,
      "wzięła": 7941,
      "kultura": 7942,
      "dostojny": 7943,
      "firm": 7944,
      "kwiatów": 7945,
      "połowę": 7946,
      "niebawem": 7947,
      "wstrzymał": 7948,
      "oglądać": 7949,
      "kwietnia": 7950,
      "dotyczące": 7951,
      "Billewiczów": 7952,
      "reżyse": 7953,
      "klasztoru": 7954,
      "CKM": 7955,
      "35": 7956,
      "nnego": 7957,
      "osobą": 7958,
      "okazał": 7959,
      "oprac": 7960,
      "wsza": 7961,
      "niebu": 7962,
      "chł": 7963,
      "pości": 7964,
      "nisz": 7965,
      "zajął": 7966,
      "zapał": 7967,
      "wywie": 7968,
      "występu": 7969,
      "dziesz": 7970,
      "cieniu": 7971,
      "cyfi": 7972,
      "któr": 7973,
      "pras": 7974,
      "bije": 7975,
      "bieli": 7976,
      "Nareszcie": 7977,
      "orą": 7978,
      "numer": 7979,
      "bezpośred": 7980,
      "stępow": 7981,
      "granicę": 7982,
      "pewności": 7983,
      "wąsi": 7984,
      "termin": 7985,
      "szonych": 7986,
      "ciemne": 7987,
      "planowa": 7988,
      "blady": 7989,
      "pamiętać": 7990,
      "wróciwszy": 7991,
      "gotowe": 7992,
      "obecności": 7993,
      "głym": 7994,
      "sędzia": 7995,
      "obowiązu": 7996,
      "wcześnie": 7997,
      "zajęcia": 7998,
      "gospodarki": 7999,
      "kontra": 8000,
      "porusza": 8001,
      "muzyka": 8002,
      "miłosierdzie": 8003,
      "budynku": 8004,
      "Słońce": 8005,
      "Żołnierze": 8006,
      "Wiśniowie": 8007,
      "Glau": 8008,
      "Usta": 8009,
      "Wał": 8010,
      "dran": 8011,
      "okazać": 8012,
      "von": 8013,
      "zrę": 8014,
      "zbój": 8015,
      "ÓR": 8016,
      "chwa": 8017,
      "poci": 8018,
      "tabli": 8019,
      "pań": 8020,
      "wyobraź": 8021,
      "ryby": 8022,
      "czynienia": 8023,
      "resta": 8024,
      "odmie": 8025,
      "oble": 8026,
      "objęcia": 8027,
      "szeniu": 8028,
      "weszła": 8029,
      "żywy": 8030,
      "gali": 8031,
      "zeum": 8032,
      "szable": 8033,
      "Nau": 8034,
      "jedź": 8035,
      "stycznej": 8036,
      "skorzy": 8037,
      "bram": 8038,
      "bran": 8039,
      "Taka": 8040,
      "bliska": 8041,
      "parta": 8042,
      "Rasz": 8043,
      "młodzieży": 8044,
      "zostawić": 8045,
      "karku": 8046,
      "obiecy": 8047,
      "światłem": 8048,
      "dzieckiem": 8049,
      "2000": 8050,
      "znajomy": 8051,
      "przyczyną": 8052,
      "badań": 8053,
      "stii": 8054,
      "Sejmu": 8055,
      "ORZA": 8056,
      "arcykapłan": 8057,
      "Dok": 8058,
      "LI": 8059,
      "Skoro": 8060,
      "Wrze": 8061,
      "hod": 8062,
      "onej": 8063,
      "opuszcza": 8064,
      "ostry": 8065,
      "tały": 8066,
      "wli": 8067,
      "źró": 8068,
      "pojęcia": 8069,
      "rzekę": 8070,
      "kozac": 8071,
      "wic": 8072,
      "winem": 8073,
      "wywia": 8074,
      "topo": 8075,
      "ówdzie": 8076,
      "dasz": 8077,
      "dzieła": 8078,
      "rela": 8079,
      "magał": 8080,
      "rozło": 8081,
      "rozsąd": 8082,
      "biesia": 8083,
      "szach": 8084,
      "losy": 8085,
      "Natura": 8086,
      "tamtych": 8087,
      "krótki": 8088,
      "Widział": 8089,
      "mniejsza": 8090,
      "miastem": 8091,
      "znajdował": 8092,
      "mieszkaniu": 8093,
      "walczyć": 8094,
      "rodzice": 8095,
      "tryum": 8096,
      "czarno": 8097,
      "szczał": 8098,
      "królowej": 8099,
      "diabła": 8100,
      "określe": 8101,
      "mogłaby": 8102,
      "prezentu": 8103,
      "przyjęcie": 8104,
      "podobie": 8105,
      "krzyknęła": 8106,
      "cjum": 8107,
      "Szuman": 8108,
      "cofnął": 8109,
      "Wszakże": 8110,
      "listopada": 8111,
      "respon": 8112,
      "bliote": 8113,
      "Bor": 8114,
      "Znam": 8115,
      "idź": 8116,
      "krza": 8117,
      "mowę": 8118,
      "ologi": 8119,
      "oporu": 8120,
      "pnie": 8121,
      "umiesz": 8122,
      "uwzglę": 8123,
      "pozo": 8124,
      "stkę": 8125,
      "lim": 8126,
      "liczył": 8127,
      "licznych": 8128,
      "zać": 8129,
      "doktor": 8130,
      "pastu": 8131,
      "przele": 8132,
      "stają": 8133,
      "obchodzi": 8134,
      "obóz": 8135,
      "pielę": 8136,
      "media": 8137,
      "lonego": 8138,
      "niusz": 8139,
      "głość": 8140,
      "Jeno": 8141,
      "czole": 8142,
      "sługa": 8143,
      "bracie": 8144,
      "barwy": 8145,
      "będziecie": 8146,
      "Mazu": 8147,
      "śmiechu": 8148,
      "Domi": 8149,
      "kroki": 8150,
      "dziana": 8151,
      "samorząd": 8152,
      "darmo": 8153,
      "czarnych": 8154,
      "Lubi": 8155,
      "ludzki": 8156,
      "przyjaciele": 8157,
      "Ktoś": 8158,
      "starym": 8159,
      "spojrzenie": 8160,
      "wskazał": 8161,
      "wyboru": 8162,
      "wyjaś": 8163,
      "tajemnicy": 8164,
      "stopnia": 8165,
      "fałszy": 8166,
      "XVIII": 8167,
      "zwierzęta": 8168,
      "uczestni": 8169,
      "angiel": 8170,
      "społeczeństwa": 8171,
      "Grek": 8172,
      "TV": 8173,
      "brą": 8174,
      "edu": 8175,
      "fale": 8176,
      "ntem": 8177,
      "schwy": 8178,
      "ukoń": 8179,
      "zgry": 8180,
      "zrazu": 8181,
      "żni": 8182,
      "nało": 8183,
      "stwu": 8184,
      "lime": 8185,
      "zaszło": 8186,
      "legi": 8187,
      "dozor": 8188,
      "widzą": 8189,
      "mawiać": 8190,
      "odtąd": 8191,
      "stacji": 8192,
      "starzec": 8193,
      "mieści": 8194,
      "silny": 8195,
      "przyda": 8196,
      "ruj": 8197,
      "biją": 8198,
      "armat": 8199,
      "częścią": 8200,
      "Jacek": 8201,
      "giel": 8202,
      "czupry": 8203,
      "rzucili": 8204,
      "fabry": 8205,
      "nięto": 8206,
      "mieszkał": 8207,
      "szum": 8208,
      "Litwie": 8209,
      "karcz": 8210,
      "trzymając": 8211,
      "cyjną": 8212,
      "stąpiła": 8213,
      "wychowa": 8214,
      "żadnym": 8215,
      "śpiewać": 8216,
      "zębami": 8217,
      "Kiem": 8218,
      "królowa": 8219,
      "Jużci": 8220,
      "matkę": 8221,
      "dziwny": 8222,
      "służbie": 8223,
      "szczególniej": 8224,
      "zaczęło": 8225,
      "przejść": 8226,
      "największy": 8227,
      "Właści": 8228,
      "Siła": 8229,
      "Będę": 8230,
      "najlepsze": 8231,
      "okręt": 8232,
      "jesteście": 8233,
      "Paryża": 8234,
      "----------------": 8235,
      "struktury": 8236,
      "Jeremi": 8237,
      "Związku": 8238,
      "Akade": 8239,
      "Obok": 8240,
      "Powi": 8241,
      "Proku": 8242,
      "arysto": 8243,
      "hrabia": 8244,
      "nnym": 8245,
      "rowo": 8246,
      "niesz": 8247,
      "postrze": 8248,
      "powrócił": 8249,
      "nicza": 8250,
      "nogę": 8251,
      "przekro": 8252,
      "many": 8253,
      "mazowie": 8254,
      "dygni": 8255,
      "szyła": 8256,
      "bodaj": 8257,
      "znaczne": 8258,
      "gią": 8259,
      "Poto": 8260,
      "głej": 8261,
      "stojący": 8262,
      "synu": 8263,
      "ogrod": 8264,
      "lęk": 8265,
      "Bodaj": 8266,
      "gram": 8267,
      "parku": 8268,
      "robisz": 8269,
      "ścianę": 8270,
      "komple": 8271,
      "dnienia": 8272,
      "kark": 8273,
      "pokoj": 8274,
      "należ": 8275,
      "starał": 8276,
      "stanowił": 8277,
      "kowane": 8278,
      "ulicę": 8279,
      "budować": 8280,
      "Mógł": 8281,
      "uczucie": 8282,
      "Herho": 8283,
      "kwadran": 8284,
      "ambi": 8285,
      "białym": 8286,
      "obycza": 8287,
      "trakta": 8288,
      "ataku": 8289,
      "odwagi": 8290,
      "Chciałbym": 8291,
      "stanowczo": 8292,
      "okien": 8293,
      "żądał": 8294,
      "Wrocła": 8295,
      "Słyszałem": 8296,
      "?\"": 8297,
      "Sia": 8298,
      "fin": 8299,
      "osobie": 8300,
      "ucho": 8301,
      "utru": 8302,
      "czało": 8303,
      "postanowie": 8304,
      "lizmu": 8305,
      "zadr": 8306,
      "komor": 8307,
      "widz": 8308,
      "wydać": 8309,
      "cywili": 8310,
      "muję": 8311,
      "tudzież": 8312,
      "pieli": 8313,
      "sporo": 8314,
      "stolet": 8315,
      "setki": 8316,
      "fikacji": 8317,
      "wałę": 8318,
      "prawem": 8319,
      "Chi": 8320,
      "koncep": 8321,
      "oczywi": 8322,
      "towany": 8323,
      "Byle": 8324,
      "chłopiec": 8325,
      "policzki": 8326,
      "takimi": 8327,
      "sprawą": 8328,
      "dziewczę": 8329,
      "ogrodu": 8330,
      "bierać": 8331,
      "potężny": 8332,
      "historię": 8333,
      "Odysa": 8334,
      "prawidł": 8335,
      "litew": 8336,
      "sprawiedliwość": 8337,
      "lekarz": 8338,
      "opinii": 8339,
      "Komisja": 8340,
      "zniknął": 8341,
      "czapkę": 8342,
      "adwokat": 8343,
      "mechani": 8344,
      "Bli": 8345,
      "Isto": 8346,
      "dowski": 8347,
      "hie": 8348,
      "kowego": 8349,
      "opu": 8350,
      "ptaki": 8351,
      "psów": 8352,
      "wzy": 8353,
      "podar": 8354,
      "niczych": 8355,
      "rając": 8356,
      "jenia": 8357,
      "zacze": 8358,
      "zastał": 8359,
      "dołu": 8360,
      "dodaje": 8361,
      "kij": 8362,
      "pany": 8363,
      "wydała": 8364,
      "dary": 8365,
      "odnale": 8366,
      "odwrócił": 8367,
      "gając": 8368,
      "rozpę": 8369,
      "wiami": 8370,
      "pance": 8371,
      "siero": 8372,
      "bus": 8373,
      "styczny": 8374,
      "twarza": 8375,
      "stępy": 8376,
      "Widzisz": 8377,
      "ktorów": 8378,
      "pewnej": 8379,
      "ścianie": 8380,
      "mógłbym": 8381,
      "miłością": 8382,
      "Wokulskim": 8383,
      "powiadam": 8384,
      "gład": 8385,
      "potęgi": 8386,
      "towarzystwo": 8387,
      "dziwnego": 8388,
      "miastach": 8389,
      "perspekty": 8390,
      "umieję": 8391,
      "niesienia": 8392,
      "podejrza": 8393,
      "gorąco": 8394,
      "czynności": 8395,
      "wybuchnął": 8396,
      "Konstan": 8397,
      "zapłacić": 8398,
      "gwiazda": 8399,
      "żywności": 8400,
      "sprzedaży": 8401,
      "regimenta": 8402,
      "MAŁ": 8403,
      "problemy": 8404,
      "rozmaitych": 8405,
      "budżetu": 8406,
      "dragonów": 8407,
      "czterdzieści": 8408,
      "Obecnie": 8409,
      "Szkoda": 8410,
      "Kościoła": 8411,
      ".),": 8412,
      "Gar": 8413,
      "IV": 8414,
      "Uj": 8415,
      "bne": 8416,
      "inicja": 8417,
      "nsów": 8418,
      "onie": 8419,
      "snem": 8420,
      "twe": 8421,
      "tką": 8422,
      "vat": 8423,
      "naboże": 8424,
      "czko": 8425,
      "cznika": 8426,
      "rają": 8427,
      "lech": 8428,
      "wisz": 8429,
      "wiały": 8430,
      "bystro": 8431,
      "jaśnie": 8432,
      "nożem": 8433,
      "prześla": 8434,
      "odwoła": 8435,
      "tum": 8436,
      "tuła": 8437,
      "pieniu": 8438,
      "wewnątrz": 8439,
      "łuje": 8440,
      "głodu": 8441,
      "rzad": 8442,
      "kędy": 8443,
      "nur": 8444,
      "tenste": 8445,
      "riusz": 8446,
      "zdjęcia": 8447,
      "konfli": 8448,
      "niętą": 8449,
      "dzali": 8450,
      "Telime": 8451,
      "świeży": 8452,
      "garść": 8453,
      "rozumu": 8454,
      "brały": 8455,
      "starczy": 8456,
      "dowania": 8457,
      "zrobiła": 8458,
      "Czehry": 8459,
      "ogrodzie": 8460,
      "obecność": 8461,
      "dalsze": 8462,
      "Bedu": 8463,
      "decyzję": 8464,
      "otwarcie": 8465,
      "starej": 8466,
      "staremu": 8467,
      "wydoby": 8468,
      "wojennych": 8469,
      "leżała": 8470,
      "przewodniczący": 8471,
      "wojowników": 8472,
      "Świat": 8473,
      "Rozumiem": 8474,
      "Kwaśnie": 8475,
      "Har": 8476,
      "Rz": 8477,
      "aha": 8478,
      "pt": 8479,
      "ubezpie": 8480,
      "uprzej": 8481,
      "upał": 8482,
      "utrzymać": 8483,
      "wpada": 8484,
      "zro": 8485,
      "zwrócić": 8486,
      "następuje": 8487,
      "chwała": 8488,
      "roi": 8489,
      "zawiado": 8490,
      "cichu": 8491,
      "leniu": 8492,
      "kacje": 8493,
      "jaśniej": 8494,
      "palą": 8495,
      "rynek": 8496,
      "przepisów": 8497,
      "przystoj": 8498,
      "przysłał": 8499,
      "tus": 8500,
      "piekie": 8501,
      "biu": 8502,
      "bile": 8503,
      "gają": 8504,
      "pirami": 8505,
      "wiali": 8506,
      "bierał": 8507,
      "stojąc": 8508,
      "powierzch": 8509,
      "równowa": 8510,
      "alfabe": 8511,
      "cięża": 8512,
      "ziom": 8513,
      "wróż": 8514,
      "padnie": 8515,
      "złotem": 8516,
      "zdarzyło": 8517,
      "rajta": 8518,
      "towarzystwa": 8519,
      "ńcami": 8520,
      "Żyd": 8521,
      "widzial": 8522,
      "ulicach": 8523,
      "miesiąca": 8524,
      "Fara": 8525,
      "nagrodę": 8526,
      "Zych": 8527,
      "klubu": 8528,
      "rodzaj": 8529,
      "powrocie": 8530,
      "leżały": 8531,
      "skłonił": 8532,
      "wzgórza": 8533,
      "poprawki": 8534,
      "postępowania": 8535,
      "Czuł": 8536,
      "szablę": 8537,
      "stopniowo": 8538,
      "Józef": 8539,
      "Lichtenste": 8540,
      "GORZA": 8541,
      "Uniwersyte": 8542,
      "Urzędu": 8543,
      "imienia": 8544,
      "oświet": 8545,
      "wrę": 8546,
      "czniej": 8547,
      "poran": 8548,
      "strów": 8549,
      "racja": 8550,
      "wita": 8551,
      "tet": 8552,
      "jać": 8553,
      "wyróż": 8554,
      "wystąpił": 8555,
      "wysyła": 8556,
      "wolą": 8557,
      "obe": 8558,
      "rur": 8559,
      "tutej": 8560,
      "lutego": 8561,
      "bite": 8562,
      "piony": 8563,
      "łuk": 8564,
      "cając": 8565,
      "siedząc": 8566,
      "Począ": 8567,
      "żając": 8568,
      "czącego": 8569,
      "Jedni": 8570,
      "czości": 8571,
      "słowy": 8572,
      "tamten": 8573,
      "waćpanu": 8574,
      "fala": 8575,
      "Roch": 8576,
      "płynęła": 8577,
      "powiadała": 8578,
      "Wiele": 8579,
      "uczyniła": 8580,
      "zdobył": 8581,
      "portu": 8582,
      "kapłana": 8583,
      "lekty": 8584,
      "potęga": 8585,
      "zachować": 8586,
      "chemi": 8587,
      "uczniów": 8588,
      "zbroi": 8589,
      "wyjścia": 8590,
      "Włady": 8591,
      "pałac": 8592,
      "Wielka": 8593,
      "ogarnął": 8594,
      "klucz": 8595,
      "tłumaczy": 8596,
      "tłumaczył": 8597,
      "normal": 8598,
      "wierzch": 8599,
      "zwróciwszy": 8600,
      "Kościół": 8601,
      "CHÓR": 8602,
      "wypowiedzi": 8603,
      "Europejskiej": 8604,
      "Wszelako": 8605,
      "Kordecki": 8606,
      "barbarzy": 8607,
      "dygnita": 8608,
      "MAŁGORZA": 8609,
      "Achi": 8610,
      "BA": 8611,
      "Bry": 8612,
      "Usłyszawszy": 8613,
      "Zdaje": 8614,
      "dróg": 8615,
      "kcja": 8616,
      "kowania": 8617,
      "oszcze": 8618,
      "oparł": 8619,
      "opór": 8620,
      "zwal": 8621,
      "ćwili": 8622,
      "nakry": 8623,
      "pokar": 8624,
      "rzecze": 8625,
      "lice": 8626,
      "zazna": 8627,
      "kiwał": 8628,
      "terów": 8629,
      "wieniu": 8630,
      "larz": 8631,
      "czynią": 8632,
      "magi": 8633,
      "cienie": 8634,
      "stado": 8635,
      "obi": 8636,
      "przysta": 8637,
      "biło": 8638,
      "rozja": 8639,
      "car": 8640,
      "bienie": 8641,
      "znają": 8642,
      "podwyż": 8643,
      "Poppe": 8644,
      "stolnik": 8645,
      "intele": 8646,
      "Zakła": 8647,
      "Zaćwili": 8648,
      "głośniej": 8649,
      "nicki": 8650,
      "miany": 8651,
      "niemało": 8652,
      "zior": 8653,
      "ktorem": 8654,
      "pełna": 8655,
      "padło": 8656,
      "mężem": 8657,
      "reszta": 8658,
      "serwa": 8659,
      "łąka": 8660,
      "płynęły": 8661,
      "wejścia": 8662,
      "starszych": 8663,
      "zamknął": 8664,
      "zrobiło": 8665,
      "potęgą": 8666,
      "osobę": 8667,
      "straszna": 8668,
      "spotkaniu": 8669,
      "pojadę": 8670,
      "rozmowie": 8671,
      "Demo": 8672,
      "niebezpieczeństwa": 8673,
      "posiadał": 8674,
      "jancza": 8675,
      "sportu": 8676,
      "Męż": 8677,
      "Trybu": 8678,
      "emoc": 8679,
      "nną": 8680,
      "ofer": 8681,
      "tnika": 8682,
      "ubo": 8683,
      "uwiel": 8684,
      "ukra": 8685,
      "ujaw": 8686,
      "wkoło": 8687,
      "niepodobna": 8688,
      "poła": 8689,
      "pośle": 8690,
      "strzę": 8691,
      "liby": 8692,
      "zapan": 8693,
      "dorad": 8694,
      "miną": 8695,
      "wid": 8696,
      "wysił": 8697,
      "mania": 8698,
      "masy": 8699,
      "cela": 8700,
      "czech": 8701,
      "czegóż": 8702,
      "obcych": 8703,
      "przysła": 8704,
      "gadał": 8705,
      "zewnętrz": 8706,
      "duję": 8707,
      "fia": 8708,
      "Jerze": 8709,
      "władz": 8710,
      "dzoną": 8711,
      "tworzy": 8712,
      "gód": 8713,
      "Staro": 8714,
      "Szlach": 8715,
      "działać": 8716,
      "tknął": 8717,
      "ściąg": 8718,
      "dwieście": 8719,
      "zdobyć": 8720,
      "plany": 8721,
      "placu": 8722,
      "rodzina": 8723,
      "dziewka": 8724,
      "dziewki": 8725,
      "lekcji": 8726,
      "powodów": 8727,
      "Krzysi": 8728,
      "scena": 8729,
      "grzesz": 8730,
      "zespół": 8731,
      "wziąwszy": 8732,
      "kamieni": 8733,
      "liczby": 8734,
      "kazywać": 8735,
      "bogaty": 8736,
      "opieki": 8737,
      "wzrostu": 8738,
      "Piotra": 8739,
      "mądry": 8740,
      "trwogi": 8741,
      "oddziału": 8742,
      "egzami": 8743,
      "spadnie": 8744,
      "energii": 8745,
      "wykorzysty": 8746,
      "grała": 8747,
      "trzeciego": 8748,
      "emery": 8749,
      "(\"": 8750,
      ".).": 8751,
      "Ab": 8752,
      "Amen": 8753,
      "epi": 8754,
      "klub": 8755,
      "oprze": 8756,
      "snych": 8757,
      "zj": 8758,
      "rzona": 8759,
      "pomoże": 8760,
      "dzała": 8761,
      "liwość": 8762,
      "litości": 8763,
      "gody": 8764,
      "zapyta": 8765,
      "łagod": 8766,
      "jar": 8767,
      "papier": 8768,
      "wystą": 8769,
      "wyprost": 8770,
      "wynala": 8771,
      "tycznych": 8772,
      "dziki": 8773,
      "nota": 8774,
      "rywał": 8775,
      "czyńskiego": 8776,
      "przesła": 8777,
      "mama": 8778,
      "sim": 8779,
      "owań": 8780,
      "bana": 8781,
      "boski": 8782,
      "czając": 8783,
      "znamieni": 8784,
      "ginie": 8785,
      "puta": 8786,
      "butel": 8787,
      "sądzi": 8788,
      "Mazow": 8789,
      "wrócę": 8790,
      "rządy": 8791,
      "kondy": 8792,
      "Koniec": 8793,
      "Szczęście": 8794,
      "trupów": 8795,
      "podobną": 8796,
      "piękną": 8797,
      "Weź": 8798,
      "wołali": 8799,
      "ujrzawszy": 8800,
      "magazy": 8801,
      "zasady": 8802,
      "prawdziwy": 8803,
      "prawdziwe": 8804,
      "niezbę": 8805,
      "dojść": 8806,
      "znajomych": 8807,
      "zakończył": 8808,
      "długiej": 8809,
      "przedsięwzię": 8810,
      "marszałka": 8811,
      "łóżka": 8812,
      "alkoholu": 8813,
      "Serce": 8814,
      "Centrum": 8815,
      "piętnaście": 8816,
      "Kiejdan": 8817,
      "Maruszewicz": 8818,
      "orygina": 8819,
      "MAŁGORZATA": 8820,
      "Am": 8821,
      "Klej": 8822,
      "SI": 8823,
      "dności": 8824,
      "smy": 8825,
      "spuszczo": 8826,
      "uprze": 8827,
      "usi": 8828,
      "ukazała": 8829,
      "zbó": 8830,
      "szk": 8831,
      "popę": 8832,
      "lizm": 8833,
      "zanu": 8834,
      "zakrę": 8835,
      "zatrzymać": 8836,
      "zaniepoko": 8837,
      "zarządza": 8838,
      "zaangaż": 8839,
      "kano": 8840,
      "waszym": 8841,
      "jadł": 8842,
      "wysunął": 8843,
      "tyś": 8844,
      "przecię": 8845,
      "przeszła": 8846,
      "malnie": 8847,
      "jąwszy": 8848,
      "cele": 8849,
      "szyły": 8850,
      "owaną": 8851,
      "przyłą": 8852,
      "piór": 8853,
      "zeru": 8854,
      "szalał": 8855,
      "puszczy": 8856,
      "sekun": 8857,
      "ordyna": 8858,
      "fitea": 8859,
      "żach": 8860,
      "tempe": 8861,
      "skoczyć": 8862,
      "tenczas": 8863,
      "Przede": 8864,
      "diów": 8865,
      "młodzież": 8866,
      "trwać": 8867,
      "musiało": 8868,
      "wionych": 8869,
      "samochod": 8870,
      "grube": 8871,
      "dowanych": 8872,
      "puściła": 8873,
      "plecy": 8874,
      "palcem": 8875,
      "smutku": 8876,
      "łódź": 8877,
      "siostra": 8878,
      "języku": 8879,
      "Cicho": 8880,
      "pracownicy": 8881,
      "kolanach": 8882,
      "komendy": 8883,
      "komendę": 8884,
      "kniaź": 8885,
      "warunków": 8886,
      "szeregu": 8887,
      "litera": 8888,
      "braknie": 8889,
      "przestrzeń": 8890,
      "straszliwy": 8891,
      "psychi": 8892,
      "słyszała": 8893,
      "cjusz": 8894,
      "dyrektora": 8895,
      "wspaniały": 8896,
      "zatrzymali": 8897,
      "profesor": 8898,
      "Chcesz": 8899,
      "kasztelan": 8900,
      "starannie": 8901,
      "Małgorza": 8902,
      "opodal": 8903,
      "300": 8904,
      "Hor": 8905,
      "Histo": 8906,
      "Mały": 8907,
      "Mor": 8908,
      "Prę": 8909,
      "Strze": 8910,
      "Zbro": 8911,
      "lało": 8912,
      "nności": 8913,
      "spła": 8914,
      "twą": 8915,
      "usłyszawszy": 8916,
      "wna": 8917,
      "czkami": 8918,
      "pokaże": 8919,
      "owce": 8920,
      "kopy": 8921,
      "karę": 8922,
      "wyposa": 8923,
      "toczy": 8924,
      "machi": 8925,
      "morzu": 8926,
      "przykro": 8927,
      "przyjeżdża": 8928,
      "przywód": 8929,
      "rują": 8930,
      "gale": 8931,
      "des": 8932,
      "cają": 8933,
      "podlega": 8934,
      "owiska": 8935,
      "syste": 8936,
      "sułta": 8937,
      "Nazajutrz": 8938,
      "mięso": 8939,
      "graf": 8940,
      "dnik": 8941,
      "padał": 8942,
      "preto": 8943,
      "Baśka": 8944,
      "ciemnej": 8945,
      "obiet": 8946,
      "światowej": 8947,
      "lekce": 8948,
      "spada": 8949,
      "szlachtę": 8950,
      "sławny": 8951,
      "czekaj": 8952,
      "czekają": 8953,
      "szczegół": 8954,
      "małych": 8955,
      "wiązał": 8956,
      "szczęśliwie": 8957,
      "opieką": 8958,
      "szwedzki": 8959,
      "Odysej": 8960,
      "dojrzał": 8961,
      "mianowicie": 8962,
      "urzędu": 8963,
      "funkcjon": 8964,
      "doświadczenia": 8965,
      "badania": 8966,
      "zwróciła": 8967,
      "rozmawiali": 8968,
      "owuje": 8969,
      "Widocznie": 8970,
      "Naturalnie": 8971,
      "Faraon": 8972,
      "Agen": 8973,
      "Hla": 8974,
      "Hali": 8975,
      "Krzecz": 8976,
      "Nor": 8977,
      "Oby": 8978,
      "ano": 8979,
      "dżu": 8980,
      "jskiego": 8981,
      "snej": 8982,
      "tt": 8983,
      "towy": 8984,
      "uko": 8985,
      "wstę": 8986,
      "wpadła": 8987,
      "wprowadza": 8988,
      "czów": 8989,
      "szliśmy": 8990,
      "popra": 8991,
      "porządek": 8992,
      "litość": 8993,
      "zama": 8994,
      "zarząd": 8995,
      "zabrz": 8996,
      "dodać": 8997,
      "wile": 8998,
      "wypę": 8999,
      "wiedzi": 9000,
      "wieży": 9001,
      "wozie": 9002,
      "dachu": 9003,
      "przynieść": 9004,
      "tując": 9005,
      "wentu": 9006,
      "pistole": 9007,
      "rozpozna": 9008,
      "wiatru": 9009,
      "spoglądać": 9010,
      "armaty": 9011,
      "jedne": 9012,
      "powieści": 9013,
      "jegomości": 9014,
      "żoł": 9015,
      "nadszedł": 9016,
      "zią": 9017,
      "mędr": 9018,
      "krzyczał": 9019,
      "Ros": 9020,
      "końmi": 9021,
      "ciemność": 9022,
      "pozwól": 9023,
      "widokiem": 9024,
      "ruszyły": 9025,
      "otoczony": 9026,
      "towarzysz": 9027,
      "jedynym": 9028,
      "twierdzą": 9029,
      "zgodził": 9030,
      "sztuk": 9031,
      "kamienie": 9032,
      "nauka": 9033,
      "naukę": 9034,
      "kultu": 9035,
      "największe": 9036,
      "współpracy": 9037,
      "ńskiemu": 9038,
      "ukryć": 9039,
      "stępował": 9040,
      "Króle": 9041,
      "układy": 9042,
      "Krzyżacy": 9043,
      "strzelać": 9044,
      "zabrakło": 9045,
      "łóżku": 9046,
      "punkt": 9047,
      "elektry": 9048,
      "Głos": 9049,
      "Łodzi": 9050,
      "Ed": 9051,
      "Mzi": 9052,
      "Suda": 9053,
      "Tobie": 9054,
      "nowie": 9055,
      "przę": 9056,
      "trę": 9057,
      "uczył": 9058,
      "wto": 9059,
      "zdej": 9060,
      "Środ": 9061,
      "niejeden": 9062,
      "niezwykle": 9063,
      "niezwykł": 9064,
      "szku": 9065,
      "szemu": 9066,
      "str": 9067,
      "rzeczach": 9068,
      "wiu": 9069,
      "wizeru": 9070,
      "walu": 9071,
      "tyk": 9072,
      "lane": 9073,
      "czymy": 9074,
      "przesa": 9075,
      "przeczu": 9076,
      "przekra": 9077,
      "kieszeni": 9078,
      "odem": 9079,
      "odróż": 9080,
      "mona": 9081,
      "sać": 9082,
      "deszczu": 9083,
      "powieki": 9084,
      "dobrowo": 9085,
      "Chciałem": 9086,
      "nionego": 9087,
      "stroju": 9088,
      "książek": 9089,
      "dawca": 9090,
      "wsparł": 9091,
      "Sama": 9092,
      "gardła": 9093,
      "karty": 9094,
      "pokona": 9095,
      "augu": 9096,
      "przyjacielem": 9097,
      "landii": 9098,
      "telewizy": 9099,
      "młodym": 9100,
      "nowiny": 9101,
      "kwit": 9102,
      "potrzebował": 9103,
      "zamknięte": 9104,
      "wnętrza": 9105,
      "stosuje": 9106,
      "stępować": 9107,
      "muzyki": 9108,
      "książkę": 9109,
      "wesele": 9110,
      "rozmaite": 9111,
      "kawałek": 9112,
      "odejść": 9113,
      "człeka": 9114,
      "Zygfryd": 9115,
      "Anzelm": 9116,
      "Mzimu": 9117,
      "36": 9118,
      "LA": 9119,
      "Sobie": 9120,
      "agen": 9121,
      "dnąć": 9122,
      "fle": 9123,
      "kowym": 9124,
      "Świe": 9125,
      "napię": 9126,
      "nieniu": 9127,
      "szmer": 9128,
      "posy": 9129,
      "poziom": 9130,
      "radziwił": 9131,
      "zapowiedział": 9132,
      "zająć": 9133,
      "doby": 9134,
      "tania": 9135,
      "żer": 9136,
      "wyło": 9137,
      "wytrzyma": 9138,
      "torem": 9139,
      "refe": 9140,
      "podjął": 9141,
      "dując": 9142,
      "inteli": 9143,
      "giej": 9144,
      "wiązy": 9145,
      "face": 9146,
      "trosk": 9147,
      "gdzieniegdzie": 9148,
      "działań": 9149,
      "poczęto": 9150,
      "dowało": 9151,
      "cyjnie": 9152,
      "postawił": 9153,
      "oboz": 9154,
      "potęgę": 9155,
      "ciężki": 9156,
      "logia": 9157,
      "publicznej": 9158,
      "organizowa": 9159,
      "Niemczech": 9160,
      "hini": 9161,
      "użytk": 9162,
      "dziedzińcu": 9163,
      "wdzięczność": 9164,
      "siadłszy": 9165,
      "potężne": 9166,
      "Danusia": 9167,
      "zdziwiony": 9168,
      "narodów": 9169,
      "lekarza": 9170,
      "ńczyk": 9171,
      "Czarnieckiego": 9172,
      "miłosierny": 9173,
      "przywiózł": 9174,
      "gospodarz": 9175,
      "Ziemi": 9176,
      "protest": 9177,
      "brzuch": 9178,
      "upadku": 9179,
      "pogrzeb": 9180,
      "Myślałem": 9181,
      "awantu": 9182,
      "Marian": 9183,
      "serdecznie": 9184,
      "Dalej": 9185,
      "techno": 9186,
      "dowcip": 9187,
      "Witten": 9188,
      "Ara": 9189,
      "Hra": 9190,
      "Ina": 9191,
      "Pła": 9192,
      "ir": 9193,
      "kową": 9194,
      "knęła": 9195,
      "mknął": 9196,
      "mowania": 9197,
      "nowski": 9198,
      "pka": 9199,
      "ubiegły": 9200,
      "wstęp": 9201,
      "zną": 9202,
      "Śmier": 9203,
      "nawy": 9204,
      "nakła": 9205,
      "niechy": 9206,
      "nieśmiertel": 9207,
      "szcząc": 9208,
      "posi": 9209,
      "owskiemu": 9210,
      "libe": 9211,
      "zadzwo": 9212,
      "zaprasza": 9213,
      "dol": 9214,
      "dopuszcza": 9215,
      "miodu": 9216,
      "wite": 9217,
      "widno": 9218,
      "tes": 9219,
      "wysi": 9220,
      "przeważnie": 9221,
      "stami": 9222,
      "staru": 9223,
      "obrzy": 9224,
      "szeń": 9225,
      "wezwał": 9226,
      "rozer": 9227,
      "spośród": 9228,
      "duszu": 9229,
      "skór": 9230,
      "Zakonu": 9231,
      "Chwała": 9232,
      "oknem": 9233,
      "żonej": 9234,
      "sądził": 9235,
      "królu": 9236,
      "pełnym": 9237,
      "Kapła": 9238,
      "padli": 9239,
      "wart": 9240,
      "nikach": 9241,
      "gniewa": 9242,
      "mocny": 9243,
      "zmieniła": 9244,
      "pozwal": 9245,
      "Pene": 9246,
      "święci": 9247,
      "hoł": 9248,
      "diab": 9249,
      "brzegiem": 9250,
      "towarzyszów": 9251,
      "jedyna": 9252,
      "ostatnia": 9253,
      "kazano": 9254,
      "siostry": 9255,
      "adres": 9256,
      "wzrost": 9257,
      "zimno": 9258,
      "pilno": 9259,
      "tygodnia": 9260,
      "zacny": 9261,
      "zdrajcy": 9262,
      "drobne": 9263,
      "komnacie": 9264,
      "księżny": 9265,
      "ojczyznę": 9266,
      "określonych": 9267,
      "błogosławie": 9268,
      "posłowie": 9269,
      "sąsiadów": 9270,
      "piwnicy": 9271,
      "mądrość": 9272,
      "rozporządzenia": 9273,
      "Mellech": 9274,
      "Ad": 9275,
      "Cu": 9276,
      "Nowy": 9277,
      "Powała": 9278,
      "Ri": 9279,
      "TY": 9280,
      "odzie": 9281,
      "uznał": 9282,
      "uniwersyte": 9283,
      "nieo": 9284,
      "szpie": 9285,
      "liczy": 9286,
      "listu": 9287,
      "zapal": 9288,
      "kolan": 9289,
      "dostała": 9290,
      "rzyna": 9291,
      "wysłucha": 9292,
      "wytrzymać": 9293,
      "przeję": 9294,
      "magna": 9295,
      "odnaj": 9296,
      "ciepło": 9297,
      "celem": 9298,
      "przychy": 9299,
      "przybyli": 9300,
      "ruma": 9301,
      "czania": 9302,
      "cokolwiek": 9303,
      "dep": 9304,
      "rozwój": 9305,
      "sposoby": 9306,
      "metr": 9307,
      "propo": 9308,
      "trzysta": 9309,
      "wzruszył": 9310,
      "skon": 9311,
      "pierał": 9312,
      "trawy": 9313,
      "straj": 9314,
      "całować": 9315,
      "Patro": 9316,
      "wojną": 9317,
      "drog": 9318,
      "konfi": 9319,
      "długa": 9320,
      "młodzian": 9321,
      "dowały": 9322,
      "święte": 9323,
      "Kmicicowi": 9324,
      "postacie": 9325,
      "towarzysza": 9326,
      "politycznych": 9327,
      "kazują": 9328,
      "liczbę": 9329,
      "skończyć": 9330,
      "wszelką": 9331,
      "królewskie": 9332,
      "pojawił": 9333,
      "białego": 9334,
      "Senatu": 9335,
      "uważam": 9336,
      "ramionach": 9337,
      "bitwę": 9338,
      "obrazić": 9339,
      "ogniska": 9340,
      "najlepszy": 9341,
      "amfitea": 9342,
      "Wojski": 9343,
      "szlachcica": 9344,
      "Prezes": 9345,
      "jakichś": 9346,
      "władca": 9347,
      "przeszłości": 9348,
      "barona": 9349,
      "cesar": 9350,
      "Paryżu": 9351,
      "Łęcki": 9352,
      "wyglądała": 9353,
      "jeziora": 9354,
      "komór": 9355,
      "Kowalski": 9356,
      "Gospodar": 9357,
      "Wrzeszcz": 9358,
      "Ami": 9359,
      "Het": 9360,
      "arab": 9361,
      "grza": 9362,
      "grzecz": 9363,
      "uła": 9364,
      "zmo": 9365,
      "nada": 9366,
      "pono": 9367,
      "pokła": 9368,
      "poten": 9369,
      "pomiesza": 9370,
      "owcy": 9371,
      "zaklę": 9372,
      "koli": 9373,
      "domaga": 9374,
      "żeście": 9375,
      "łosko": 9376,
      "wole": 9377,
      "rezo": 9378,
      "kiemu": 9379,
      "stawi": 9380,
      "sile": 9381,
      "niali": 9382,
      "rozpoczęła": 9383,
      "cam": 9384,
      "bieżą": 9385,
      "podsu": 9386,
      "skre": 9387,
      "jedwa": 9388,
      "buntu": 9389,
      "prawą": 9390,
      "słab": 9391,
      "trans": 9392,
      "płacił": 9393,
      "Widzi": 9394,
      "konstytu": 9395,
      "studia": 9396,
      "dawcy": 9397,
      "Kocha": 9398,
      "trudem": 9399,
      "ważał": 9400,
      "wschód": 9401,
      "kiedykolwiek": 9402,
      "wejście": 9403,
      "uczynię": 9404,
      "samolo": 9405,
      "kilkaset": 9406,
      "chciałby": 9407,
      "ktury": 9408,
      "trafić": 9409,
      "podatku": 9410,
      "wracając": 9411,
      "Janusza": 9412,
      "piął": 9413,
      "bóstwo": 9414,
      "korzyst": 9415,
      "wyborach": 9416,
      "ciekawość": 9417,
      "wojskowych": 9418,
      "spodziewać": 9419,
      "gorsze": 9420,
      "pilnu": 9421,
      "państwie": 9422,
      "pułkownika": 9423,
      "rozpocznie": 9424,
      "miejscowości": 9425,
      "Organi": 9426,
      "Gaze": 9427,
      "czwarty": 9428,
      "czwartek": 9429,
      "spostrzegłszy": 9430,
      "zboża": 9431,
      "kwestia": 9432,
      "Drugi": 9433,
      "osobiście": 9434,
      "miłuje": 9435,
      "Patrzcie": 9436,
      "Kalego": 9437,
      "nomarcha": 9438,
      "odetchnął": 9439,
      "absolu": 9440,
      "restaura": 9441,
      "Inaczej": 9442,
      "Cią": 9443,
      "Per": 9444,
      "opowiedział": 9445,
      "trem": 9446,
      "wskó": 9447,
      "złą": 9448,
      "zrozu": 9449,
      "zrobię": 9450,
      "zorganiz": 9451,
      "śmiały": 9452,
      "żnej": 9453,
      "nień": 9454,
      "dzkiego": 9455,
      "zakład": 9456,
      "cich": 9457,
      "dora": 9458,
      "kają": 9459,
      "żebra": 9460,
      "wykrę": 9461,
      "wybrać": 9462,
      "łodzi": 9463,
      "nosem": 9464,
      "dziewi": 9465,
      "dziewią": 9466,
      "odwo": 9467,
      "cienia": 9468,
      "owanej": 9469,
      "basz": 9470,
      "czanie": 9471,
      "pii": 9472,
      "pisz": 9473,
      "rozry": 9474,
      "rozkła": 9475,
      "rozdraż": 9476,
      "proro": 9477,
      "promieni": 9478,
      "syl": 9479,
      "głosi": 9480,
      "nictwem": 9481,
      "ziemie": 9482,
      "rowanie": 9483,
      "zia": 9484,
      "rzuci": 9485,
      "Państw": 9486,
      "dzając": 9487,
      "Rawli": 9488,
      "dałem": 9489,
      "świeże": 9490,
      "trum": 9491,
      "słody": 9492,
      "gent": 9493,
      "panienka": 9494,
      "samodzie": 9495,
      "mieszkać": 9496,
      "ucieczki": 9497,
      "dzieciom": 9498,
      "Dagon": 9499,
      "szlachtą": 9500,
      "ludzkiego": 9501,
      "kowany": 9502,
      "Prawie": 9503,
      "towarzysze": 9504,
      "Możesz": 9505,
      "Najpierw": 9506,
      "Dobra": 9507,
      "przejdzie": 9508,
      "wszelki": 9509,
      "Kisie": 9510,
      "rozległy": 9511,
      "społecznych": 9512,
      "rozpacz": 9513,
      "Syna": 9514,
      "Ryszar": 9515,
      "wspólnie": 9516,
      "treści": 9517,
      "próbować": 9518,
      "znajdziesz": 9519,
      "zbrojnych": 9520,
      "podłogę": 9521,
[...]
